{
  "version": "1.0",
  "truncation": {
    "direction": "Right",
    "max_length": 128,
    "strategy": "LongestFirst",
    "stride": 0
  },
  "padding": null,
  "added_tokens": [
    {
      "id": 0,
      "content": "[UNK]",
      "single_word": false,
      "lstrip": false,
      "rstrip": false,
      "normalized": false,
      "special": true
    },
    {
      "id": 1,
      "content": "[CLS]",
      "single_word": false,
      "lstrip": false,
      "rstrip": false,
      "normalized": false,
      "special": true
    },
    {
      "id": 2,
      "content": "[SEP]",
      "single_word": false,
      "lstrip": false,
      "rstrip": false,
      "normalized": false,
      "special": true
    },
    {
      "id": 3,
      "content": "[PAD]",
      "single_word": false,
      "lstrip": false,
      "rstrip": false,
      "normalized": false,
      "special": true
    },
    {
      "id": 4,
      "content": "[MASK]",
      "single_word": false,
      "lstrip": false,
      "rstrip": false,
      "normalized": false,
      "special": true
    },
    {
      "id": 30522,
      "content": "<|pad|>",
      "single_word": false,
      "lstrip": false,
      "rstrip": false,
      "normalized": false,
      "special": true
    }
  ],
  "normalizer": null,
  "pre_tokenizer": {
    "type": "Whitespace"
  },
  "post_processor": {
    "type": "TemplateProcessing",
    "single": [
      {
        "Sequence": {
          "id": "A",
          "type_id": 0
        }
      }
    ],
    "pair": [
      {
        "Sequence": {
          "id": "A",
          "type_id": 0
        }
      },
      {
        "Sequence": {
          "id": "B",
          "type_id": 1
        }
      }
    ],
    "special_tokens": {}
  },
  "decoder": null,
  "model": {
    "type": "BPE",
    "dropout": null,
    "unk_token": "[UNK]",
    "continuing_subword_prefix": null,
    "end_of_word_suffix": null,
    "fuse_unk": false,
    "byte_fallback": false,
    "ignore_merges": false,
    "vocab": {
      "[UNK]": 0,
      "[CLS]": 1,
      "[SEP]": 2,
      "[PAD]": 3,
      "[MASK]": 4,
      "!": 5,
      "#": 6,
      "$": 7,
      "%": 8,
      "&": 9,
      "'": 10,
      "(": 11,
      ")": 12,
      "*": 13,
      "+": 14,
      ",": 15,
      "-": 16,
      ".": 17,
      "/": 18,
      "0": 19,
      "1": 20,
      "2": 21,
      "3": 22,
      "4": 23,
      "5": 24,
      "6": 25,
      "7": 26,
      "8": 27,
      "9": 28,
      ":": 29,
      ";": 30,
      "=": 31,
      "?": 32,
      "@": 33,
      "A": 34,
      "B": 35,
      "C": 36,
      "D": 37,
      "E": 38,
      "F": 39,
      "G": 40,
      "H": 41,
      "I": 42,
      "J": 43,
      "K": 44,
      "L": 45,
      "M": 46,
      "N": 47,
      "O": 48,
      "P": 49,
      "Q": 50,
      "R": 51,
      "S": 52,
      "T": 53,
      "U": 54,
      "V": 55,
      "W": 56,
      "X": 57,
      "Y": 58,
      "Z": 59,
      "^": 60,
      "_": 61,
      "a": 62,
      "b": 63,
      "c": 64,
      "d": 65,
      "e": 66,
      "f": 67,
      "g": 68,
      "h": 69,
      "i": 70,
      "j": 71,
      "k": 72,
      "l": 73,
      "m": 74,
      "n": 75,
      "o": 76,
      "p": 77,
      "q": 78,
      "r": 79,
      "s": 80,
      "t": 81,
      "u": 82,
      "v": 83,
      "w": 84,
      "x": 85,
      "y": 86,
      "z": 87,
      "©": 88,
      "®": 89,
      "‍": 90,
      "‼": 91,
      "⁉": 92,
      "⃣": 93,
      "™": 94,
      "ℹ": 95,
      "↔": 96,
      "↕": 97,
      "↖": 98,
      "↗": 99,
      "↘": 100,
      "↙": 101,
      "↩": 102,
      "↪": 103,
      "⌚": 104,
      "⌛": 105,
      "⌨": 106,
      "⏏": 107,
      "⏩": 108,
      "⏪": 109,
      "⏫": 110,
      "⏬": 111,
      "⏭": 112,
      "⏮": 113,
      "⏯": 114,
      "⏰": 115,
      "⏱": 116,
      "⏲": 117,
      "⏳": 118,
      "⏸": 119,
      "⏹": 120,
      "⏺": 121,
      "Ⓜ": 122,
      "▪": 123,
      "▫": 124,
      "▶": 125,
      "◀": 126,
      "◻": 127,
      "◼": 128,
      "◽": 129,
      "◾": 130,
      "☀": 131,
      "☁": 132,
      "☂": 133,
      "☃": 134,
      "☄": 135,
      "☎": 136,
      "☑": 137,
      "☔": 138,
      "☕": 139,
      "☘": 140,
      "☝": 141,
      "☠": 142,
      "☢": 143,
      "☣": 144,
      "☦": 145,
      "☪": 146,
      "☮": 147,
      "☯": 148,
      "☸": 149,
      "☹": 150,
      "☺": 151,
      "♀": 152,
      "♂": 153,
      "♈": 154,
      "♉": 155,
      "♊": 156,
      "♋": 157,
      "♌": 158,
      "♍": 159,
      "♎": 160,
      "♏": 161,
      "♐": 162,
      "♑": 163,
      "♒": 164,
      "♓": 165,
      "♟": 166,
      "♠": 167,
      "♣": 168,
      "♥": 169,
      "♦": 170,
      "♨": 171,
      "♻": 172,
      "♾": 173,
      "♿": 174,
      "⚒": 175,
      "⚓": 176,
      "⚔": 177,
      "⚕": 178,
      "⚖": 179,
      "⚗": 180,
      "⚙": 181,
      "⚛": 182,
      "⚜": 183,
      "⚠": 184,
      "⚡": 185,
      "⚧": 186,
      "⚪": 187,
      "⚫": 188,
      "⚰": 189,
      "⚱": 190,
      "⚽": 191,
      "⚾": 192,
      "⛄": 193,
      "⛅": 194,
      "⛈": 195,
      "⛎": 196,
      "⛏": 197,
      "⛓": 198,
      "⛔": 199,
      "⛩": 200,
      "⛪": 201,
      "⛰": 202,
      "⛱": 203,
      "⛲": 204,
      "⛳": 205,
      "⛴": 206,
      "⛵": 207,
      "⛷": 208,
      "⛸": 209,
      "⛹": 210,
      "⛺": 211,
      "⛽": 212,
      "✂": 213,
      "✅": 214,
      "✈": 215,
      "✉": 216,
      "✊": 217,
      "✋": 218,
      "✌": 219,
      "✍": 220,
      "✏": 221,
      "✒": 222,
      "✔": 223,
      "✖": 224,
      "✝": 225,
      "✡": 226,
      "✨": 227,
      "✳": 228,
      "✴": 229,
      "❄": 230,
      "❇": 231,
      "❌": 232,
      "❎": 233,
      "❓": 234,
      "❔": 235,
      "❕": 236,
      "❗": 237,
      "❣": 238,
      "❤": 239,
      "➕": 240,
      "➖": 241,
      "➗": 242,
      "➡": 243,
      "➰": 244,
      "➿": 245,
      "⤴": 246,
      "⤵": 247,
      "⬅": 248,
      "⬆": 249,
      "⬇": 250,
      "⬛": 251,
      "⬜": 252,
      "⭐": 253,
      "⭕": 254,
      "〰": 255,
      "〽": 256,
      "㊗": 257,
      "㊙": 258,
      "️": 259,
      "🀄": 260,
      "🃏": 261,
      "🅰": 262,
      "🅱": 263,
      "🅾": 264,
      "🅿": 265,
      "🆎": 266,
      "🆑": 267,
      "🆒": 268,
      "🆓": 269,
      "🆔": 270,
      "🆕": 271,
      "🆖": 272,
      "🆗": 273,
      "🆘": 274,
      "🆙": 275,
      "🆚": 276,
      "🇦": 277,
      "🇧": 278,
      "🇨": 279,
      "🇩": 280,
      "🇪": 281,
      "🇫": 282,
      "🇬": 283,
      "🇭": 284,
      "🇮": 285,
      "🇯": 286,
      "🇰": 287,
      "🇱": 288,
      "🇲": 289,
      "🇳": 290,
      "🇴": 291,
      "🇵": 292,
      "🇶": 293,
      "🇷": 294,
      "🇸": 295,
      "🇹": 296,
      "🇺": 297,
      "🇻": 298,
      "🇼": 299,
      "🇽": 300,
      "🇾": 301,
      "🇿": 302,
      "🈚": 303,
      "🈯": 304,
      "🈲": 305,
      "🈳": 306,
      "🈵": 307,
      "🈶": 308,
      "🈹": 309,
      "🈺": 310,
      "🉐": 311,
      "🉑": 312,
      "🌀": 313,
      "🌁": 314,
      "🌂": 315,
      "🌃": 316,
      "🌄": 317,
      "🌅": 318,
      "🌆": 319,
      "🌇": 320,
      "🌈": 321,
      "🌉": 322,
      "🌊": 323,
      "🌋": 324,
      "🌌": 325,
      "🌍": 326,
      "🌎": 327,
      "🌏": 328,
      "🌐": 329,
      "🌑": 330,
      "🌒": 331,
      "🌓": 332,
      "🌔": 333,
      "🌕": 334,
      "🌖": 335,
      "🌗": 336,
      "🌘": 337,
      "🌙": 338,
      "🌚": 339,
      "🌛": 340,
      "🌜": 341,
      "🌝": 342,
      "🌞": 343,
      "🌟": 344,
      "🌠": 345,
      "🌡": 346,
      "🌤": 347,
      "🌥": 348,
      "🌦": 349,
      "🌧": 350,
      "🌨": 351,
      "🌩": 352,
      "🌪": 353,
      "🌫": 354,
      "🌬": 355,
      "🌭": 356,
      "🌮": 357,
      "🌯": 358,
      "🌰": 359,
      "🌱": 360,
      "🌲": 361,
      "🌳": 362,
      "🌴": 363,
      "🌵": 364,
      "🌶": 365,
      "🌷": 366,
      "🌸": 367,
      "🌹": 368,
      "🌺": 369,
      "🌻": 370,
      "🌼": 371,
      "🌽": 372,
      "🌾": 373,
      "🌿": 374,
      "🍀": 375,
      "🍁": 376,
      "🍂": 377,
      "🍃": 378,
      "🍄": 379,
      "🍅": 380,
      "🍆": 381,
      "🍇": 382,
      "🍈": 383,
      "🍉": 384,
      "🍊": 385,
      "🍋": 386,
      "🍌": 387,
      "🍍": 388,
      "🍎": 389,
      "🍏": 390,
      "🍐": 391,
      "🍑": 392,
      "🍒": 393,
      "🍓": 394,
      "🍔": 395,
      "🍕": 396,
      "🍖": 397,
      "🍗": 398,
      "🍘": 399,
      "🍙": 400,
      "🍚": 401,
      "🍛": 402,
      "🍜": 403,
      "🍝": 404,
      "🍞": 405,
      "🍟": 406,
      "🍠": 407,
      "🍡": 408,
      "🍢": 409,
      "🍣": 410,
      "🍤": 411,
      "🍥": 412,
      "🍦": 413,
      "🍧": 414,
      "🍨": 415,
      "🍩": 416,
      "🍪": 417,
      "🍫": 418,
      "🍬": 419,
      "🍭": 420,
      "🍮": 421,
      "🍯": 422,
      "🍰": 423,
      "🍱": 424,
      "🍲": 425,
      "🍳": 426,
      "🍴": 427,
      "🍵": 428,
      "🍶": 429,
      "🍷": 430,
      "🍸": 431,
      "🍹": 432,
      "🍺": 433,
      "🍻": 434,
      "🍼": 435,
      "🍽": 436,
      "🍾": 437,
      "🍿": 438,
      "🎀": 439,
      "🎁": 440,
      "🎂": 441,
      "🎃": 442,
      "🎄": 443,
      "🎅": 444,
      "🎆": 445,
      "🎇": 446,
      "🎈": 447,
      "🎉": 448,
      "🎊": 449,
      "🎋": 450,
      "🎌": 451,
      "🎍": 452,
      "🎎": 453,
      "🎏": 454,
      "🎐": 455,
      "🎑": 456,
      "🎒": 457,
      "🎓": 458,
      "🎖": 459,
      "🎗": 460,
      "🎙": 461,
      "🎚": 462,
      "🎛": 463,
      "🎞": 464,
      "🎟": 465,
      "🎠": 466,
      "🎡": 467,
      "🎢": 468,
      "🎣": 469,
      "🎤": 470,
      "🎥": 471,
      "🎦": 472,
      "🎧": 473,
      "🎨": 474,
      "🎩": 475,
      "🎪": 476,
      "🎫": 477,
      "🎬": 478,
      "🎭": 479,
      "🎮": 480,
      "🎯": 481,
      "🎰": 482,
      "🎱": 483,
      "🎲": 484,
      "🎳": 485,
      "🎴": 486,
      "🎵": 487,
      "🎶": 488,
      "🎷": 489,
      "🎸": 490,
      "🎹": 491,
      "🎺": 492,
      "🎻": 493,
      "🎼": 494,
      "🎽": 495,
      "🎾": 496,
      "🎿": 497,
      "🏀": 498,
      "🏁": 499,
      "🏂": 500,
      "🏃": 501,
      "🏄": 502,
      "🏅": 503,
      "🏆": 504,
      "🏇": 505,
      "🏈": 506,
      "🏉": 507,
      "🏊": 508,
      "🏋": 509,
      "🏌": 510,
      "🏍": 511,
      "🏎": 512,
      "🏏": 513,
      "🏐": 514,
      "🏑": 515,
      "🏒": 516,
      "🏓": 517,
      "🏔": 518,
      "🏕": 519,
      "🏖": 520,
      "🏗": 521,
      "🏘": 522,
      "🏙": 523,
      "🏚": 524,
      "🏛": 525,
      "🏜": 526,
      "🏝": 527,
      "🏞": 528,
      "🏟": 529,
      "🏠": 530,
      "🏡": 531,
      "🏢": 532,
      "🏣": 533,
      "🏤": 534,
      "🏥": 535,
      "🏦": 536,
      "🏧": 537,
      "🏨": 538,
      "🏩": 539,
      "🏪": 540,
      "🏫": 541,
      "🏬": 542,
      "🏭": 543,
      "🏮": 544,
      "🏯": 545,
      "🏰": 546,
      "🏳": 547,
      "🏴": 548,
      "🏵": 549,
      "🏷": 550,
      "🏸": 551,
      "🏹": 552,
      "🏺": 553,
      "🏻": 554,
      "🏼": 555,
      "🏽": 556,
      "🏾": 557,
      "🏿": 558,
      "🐀": 559,
      "🐁": 560,
      "🐂": 561,
      "🐃": 562,
      "🐄": 563,
      "🐅": 564,
      "🐆": 565,
      "🐇": 566,
      "🐈": 567,
      "🐉": 568,
      "🐊": 569,
      "🐋": 570,
      "🐌": 571,
      "🐍": 572,
      "🐎": 573,
      "🐏": 574,
      "🐐": 575,
      "🐑": 576,
      "🐒": 577,
      "🐓": 578,
      "🐔": 579,
      "🐕": 580,
      "🐖": 581,
      "🐗": 582,
      "🐘": 583,
      "🐙": 584,
      "🐚": 585,
      "🐛": 586,
      "🐜": 587,
      "🐝": 588,
      "🐞": 589,
      "🐟": 590,
      "🐠": 591,
      "🐡": 592,
      "🐢": 593,
      "🐣": 594,
      "🐤": 595,
      "🐥": 596,
      "🐦": 597,
      "🐧": 598,
      "🐨": 599,
      "🐩": 600,
      "🐪": 601,
      "🐫": 602,
      "🐬": 603,
      "🐭": 604,
      "🐮": 605,
      "🐯": 606,
      "🐰": 607,
      "🐱": 608,
      "🐲": 609,
      "🐳": 610,
      "🐴": 611,
      "🐵": 612,
      "🐶": 613,
      "🐷": 614,
      "🐸": 615,
      "🐹": 616,
      "🐺": 617,
      "🐻": 618,
      "🐼": 619,
      "🐽": 620,
      "🐾": 621,
      "🐿": 622,
      "👀": 623,
      "👁": 624,
      "👂": 625,
      "👃": 626,
      "👄": 627,
      "👅": 628,
      "👆": 629,
      "👇": 630,
      "👈": 631,
      "👉": 632,
      "👊": 633,
      "👋": 634,
      "👌": 635,
      "👍": 636,
      "👎": 637,
      "👏": 638,
      "👐": 639,
      "👑": 640,
      "👓": 641,
      "👔": 642,
      "👕": 643,
      "👖": 644,
      "👗": 645,
      "👘": 646,
      "👙": 647,
      "👛": 648,
      "👜": 649,
      "👝": 650,
      "👟": 651,
      "👠": 652,
      "👣": 653,
      "👤": 654,
      "👥": 655,
      "👦": 656,
      "👧": 657,
      "👨": 658,
      "👩": 659,
      "👪": 660,
      "👫": 661,
      "👬": 662,
      "👭": 663,
      "👮": 664,
      "👯": 665,
      "👰": 666,
      "👱": 667,
      "👲": 668,
      "👳": 669,
      "👴": 670,
      "👵": 671,
      "👶": 672,
      "👷": 673,
      "👸": 674,
      "👹": 675,
      "👺": 676,
      "👻": 677,
      "👼": 678,
      "👽": 679,
      "👾": 680,
      "👿": 681,
      "💀": 682,
      "💁": 683,
      "💂": 684,
      "💃": 685,
      "💄": 686,
      "💅": 687,
      "💆": 688,
      "💇": 689,
      "💈": 690,
      "💉": 691,
      "💊": 692,
      "💋": 693,
      "💌": 694,
      "💍": 695,
      "💎": 696,
      "💏": 697,
      "💐": 698,
      "💑": 699,
      "💒": 700,
      "💓": 701,
      "💔": 702,
      "💕": 703,
      "💖": 704,
      "💗": 705,
      "💘": 706,
      "💙": 707,
      "💚": 708,
      "💛": 709,
      "💜": 710,
      "💝": 711,
      "💞": 712,
      "💟": 713,
      "💠": 714,
      "💡": 715,
      "💢": 716,
      "💣": 717,
      "💤": 718,
      "💥": 719,
      "💦": 720,
      "💧": 721,
      "💨": 722,
      "💩": 723,
      "💪": 724,
      "💫": 725,
      "💬": 726,
      "💭": 727,
      "💮": 728,
      "💯": 729,
      "💰": 730,
      "💱": 731,
      "💲": 732,
      "💳": 733,
      "💴": 734,
      "💵": 735,
      "💶": 736,
      "💷": 737,
      "💸": 738,
      "💹": 739,
      "💺": 740,
      "💻": 741,
      "💼": 742,
      "💽": 743,
      "💾": 744,
      "💿": 745,
      "📀": 746,
      "📁": 747,
      "📂": 748,
      "📃": 749,
      "📄": 750,
      "📅": 751,
      "📆": 752,
      "📇": 753,
      "📈": 754,
      "📉": 755,
      "📊": 756,
      "📋": 757,
      "📌": 758,
      "📍": 759,
      "📎": 760,
      "📏": 761,
      "📐": 762,
      "📑": 763,
      "📒": 764,
      "📓": 765,
      "📔": 766,
      "📕": 767,
      "📖": 768,
      "📗": 769,
      "📘": 770,
      "📙": 771,
      "📚": 772,
      "📛": 773,
      "📜": 774,
      "📝": 775,
      "📞": 776,
      "📟": 777,
      "📠": 778,
      "📡": 779,
      "📢": 780,
      "📣": 781,
      "📤": 782,
      "📥": 783,
      "📦": 784,
      "📧": 785,
      "📨": 786,
      "📩": 787,
      "📪": 788,
      "📫": 789,
      "📬": 790,
      "📭": 791,
      "📮": 792,
      "📯": 793,
      "📰": 794,
      "📱": 795,
      "📲": 796,
      "📳": 797,
      "📴": 798,
      "📵": 799,
      "📶": 800,
      "📷": 801,
      "📸": 802,
      "📹": 803,
      "📺": 804,
      "📻": 805,
      "📼": 806,
      "📽": 807,
      "📿": 808,
      "🔀": 809,
      "🔁": 810,
      "🔂": 811,
      "🔃": 812,
      "🔄": 813,
      "🔅": 814,
      "🔆": 815,
      "🔇": 816,
      "🔈": 817,
      "🔉": 818,
      "🔊": 819,
      "🔋": 820,
      "🔌": 821,
      "🔍": 822,
      "🔎": 823,
      "🔏": 824,
      "🔐": 825,
      "🔑": 826,
      "🔒": 827,
      "🔓": 828,
      "🔔": 829,
      "🔕": 830,
      "🔖": 831,
      "🔗": 832,
      "🔘": 833,
      "🔙": 834,
      "🔚": 835,
      "🔛": 836,
      "🔜": 837,
      "🔝": 838,
      "🔞": 839,
      "🔟": 840,
      "🔠": 841,
      "🔡": 842,
      "🔢": 843,
      "🔣": 844,
      "🔤": 845,
      "🔥": 846,
      "🔦": 847,
      "🔧": 848,
      "🔨": 849,
      "🔩": 850,
      "🔪": 851,
      "🔫": 852,
      "🔬": 853,
      "🔭": 854,
      "🔮": 855,
      "🔯": 856,
      "🔰": 857,
      "🔱": 858,
      "🔲": 859,
      "🔳": 860,
      "🔴": 861,
      "🔵": 862,
      "🔶": 863,
      "🔷": 864,
      "🔸": 865,
      "🔹": 866,
      "🔺": 867,
      "🔻": 868,
      "🔼": 869,
      "🔽": 870,
      "🕆": 871,
      "🕉": 872,
      "🕊": 873,
      "🕋": 874,
      "🕌": 875,
      "🕍": 876,
      "🕎": 877,
      "🕜": 878,
      "🕝": 879,
      "🕞": 880,
      "🕟": 881,
      "🕠": 882,
      "🕡": 883,
      "🕢": 884,
      "🕣": 885,
      "🕤": 886,
      "🕥": 887,
      "🕦": 888,
      "🕧": 889,
      "🕯": 890,
      "🕰": 891,
      "🕳": 892,
      "🕴": 893,
      "🕵": 894,
      "🕶": 895,
      "🕷": 896,
      "🕸": 897,
      "🕹": 898,
      "🕺": 899,
      "🖇": 900,
      "🖊": 901,
      "🖋": 902,
      "🖌": 903,
      "🖍": 904,
      "🖐": 905,
      "🖑": 906,
      "🖒": 907,
      "🖓": 908,
      "🖕": 909,
      "🖖": 910,
      "🖤": 911,
      "🖥": 912,
      "🖨": 913,
      "🖱": 914,
      "🖲": 915,
      "🖼": 916,
      "🗂": 917,
      "🗃": 918,
      "🗄": 919,
      "🗑": 920,
      "🗒": 921,
      "🗓": 922,
      "🗜": 923,
      "🗝": 924,
      "🗞": 925,
      "🗡": 926,
      "🗣": 927,
      "🗨": 928,
      "🗯": 929,
      "🗳": 930,
      "🗺": 931,
      "🗻": 932,
      "🗼": 933,
      "🗽": 934,
      "🗾": 935,
      "🗿": 936,
      "😀": 937,
      "😁": 938,
      "😂": 939,
      "😃": 940,
      "😄": 941,
      "😅": 942,
      "😆": 943,
      "😇": 944,
      "😈": 945,
      "😉": 946,
      "😊": 947,
      "😋": 948,
      "😌": 949,
      "😍": 950,
      "😎": 951,
      "😏": 952,
      "😐": 953,
      "😑": 954,
      "😒": 955,
      "😓": 956,
      "😔": 957,
      "😕": 958,
      "😖": 959,
      "😗": 960,
      "😘": 961,
      "😙": 962,
      "😚": 963,
      "😛": 964,
      "😜": 965,
      "😝": 966,
      "😞": 967,
      "😟": 968,
      "😠": 969,
      "😡": 970,
      "😢": 971,
      "😣": 972,
      "😤": 973,
      "😥": 974,
      "😦": 975,
      "😧": 976,
      "😨": 977,
      "😩": 978,
      "😪": 979,
      "😫": 980,
      "😬": 981,
      "😭": 982,
      "😮": 983,
      "😯": 984,
      "😰": 985,
      "😱": 986,
      "😲": 987,
      "😳": 988,
      "😴": 989,
      "😵": 990,
      "😶": 991,
      "😷": 992,
      "😸": 993,
      "😹": 994,
      "😺": 995,
      "😻": 996,
      "😼": 997,
      "😽": 998,
      "😾": 999,
      "😿": 1000,
      "🙀": 1001,
      "🙁": 1002,
      "🙂": 1003,
      "🙃": 1004,
      "🙄": 1005,
      "🙅": 1006,
      "🙆": 1007,
      "🙇": 1008,
      "🙈": 1009,
      "🙉": 1010,
      "🙊": 1011,
      "🙋": 1012,
      "🙌": 1013,
      "🙍": 1014,
      "🙎": 1015,
      "🙏": 1016,
      "🚀": 1017,
      "🚁": 1018,
      "🚂": 1019,
      "🚃": 1020,
      "🚄": 1021,
      "🚅": 1022,
      "🚆": 1023,
      "🚇": 1024,
      "🚈": 1025,
      "🚉": 1026,
      "🚊": 1027,
      "🚋": 1028,
      "🚌": 1029,
      "🚍": 1030,
      "🚎": 1031,
      "🚏": 1032,
      "🚐": 1033,
      "🚑": 1034,
      "🚒": 1035,
      "🚓": 1036,
      "🚔": 1037,
      "🚕": 1038,
      "🚖": 1039,
      "🚗": 1040,
      "🚘": 1041,
      "🚙": 1042,
      "🚚": 1043,
      "🚛": 1044,
      "🚜": 1045,
      "🚝": 1046,
      "🚞": 1047,
      "🚟": 1048,
      "🚠": 1049,
      "🚡": 1050,
      "🚢": 1051,
      "🚣": 1052,
      "🚤": 1053,
      "🚥": 1054,
      "🚦": 1055,
      "🚧": 1056,
      "🚨": 1057,
      "🚩": 1058,
      "🚪": 1059,
      "🚫": 1060,
      "🚬": 1061,
      "🚭": 1062,
      "🚮": 1063,
      "🚯": 1064,
      "🚰": 1065,
      "🚱": 1066,
      "🚲": 1067,
      "🚳": 1068,
      "🚴": 1069,
      "🚵": 1070,
      "🚶": 1071,
      "🚷": 1072,
      "🚸": 1073,
      "🚻": 1074,
      "🚼": 1075,
      "🚽": 1076,
      "🚾": 1077,
      "🚿": 1078,
      "🛀": 1079,
      "🛁": 1080,
      "🛂": 1081,
      "🛃": 1082,
      "🛄": 1083,
      "🛅": 1084,
      "🛋": 1085,
      "🛌": 1086,
      "🛍": 1087,
      "🛎": 1088,
      "🛏": 1089,
      "🛐": 1090,
      "🛑": 1091,
      "🛒": 1092,
      "🛕": 1093,
      "🛖": 1094,
      "🛗": 1095,
      "🛠": 1096,
      "🛡": 1097,
      "🛢": 1098,
      "🛣": 1099,
      "🛤": 1100,
      "🛥": 1101,
      "🛩": 1102,
      "🛫": 1103,
      "🛬": 1104,
      "🛰": 1105,
      "🛳": 1106,
      "🛴": 1107,
      "🛵": 1108,
      "🛶": 1109,
      "🛷": 1110,
      "🛸": 1111,
      "🛹": 1112,
      "🛺": 1113,
      "🛻": 1114,
      "🛼": 1115,
      "🟠": 1116,
      "🟡": 1117,
      "🟢": 1118,
      "🟣": 1119,
      "🟤": 1120,
      "🟥": 1121,
      "🟦": 1122,
      "🟧": 1123,
      "🟨": 1124,
      "🟩": 1125,
      "🟪": 1126,
      "🟫": 1127,
      "🤌": 1128,
      "🤍": 1129,
      "🤎": 1130,
      "🤏": 1131,
      "🤐": 1132,
      "🤑": 1133,
      "🤒": 1134,
      "🤓": 1135,
      "🤔": 1136,
      "🤕": 1137,
      "🤖": 1138,
      "🤗": 1139,
      "🤘": 1140,
      "🤙": 1141,
      "🤚": 1142,
      "🤛": 1143,
      "🤜": 1144,
      "🤝": 1145,
      "🤞": 1146,
      "🤟": 1147,
      "🤠": 1148,
      "🤡": 1149,
      "🤢": 1150,
      "🤣": 1151,
      "🤤": 1152,
      "🤥": 1153,
      "🤦": 1154,
      "🤧": 1155,
      "🤨": 1156,
      "🤩": 1157,
      "🤪": 1158,
      "🤫": 1159,
      "🤬": 1160,
      "🤭": 1161,
      "🤮": 1162,
      "🤯": 1163,
      "🤰": 1164,
      "🤱": 1165,
      "🤲": 1166,
      "🤳": 1167,
      "🤴": 1168,
      "🤵": 1169,
      "🤶": 1170,
      "🤷": 1171,
      "🤸": 1172,
      "🤹": 1173,
      "🤺": 1174,
      "🤼": 1175,
      "🤽": 1176,
      "🤾": 1177,
      "🤿": 1178,
      "🥀": 1179,
      "🥁": 1180,
      "🥂": 1181,
      "🥃": 1182,
      "🥄": 1183,
      "🥅": 1184,
      "🥇": 1185,
      "🥈": 1186,
      "🥉": 1187,
      "🥊": 1188,
      "🥋": 1189,
      "🥌": 1190,
      "🥍": 1191,
      "🥎": 1192,
      "🥏": 1193,
      "🥐": 1194,
      "🥑": 1195,
      "🥒": 1196,
      "🥓": 1197,
      "🥔": 1198,
      "🥕": 1199,
      "🥖": 1200,
      "🥗": 1201,
      "🥘": 1202,
      "🥙": 1203,
      "🥚": 1204,
      "🥛": 1205,
      "🥜": 1206,
      "🥝": 1207,
      "🥞": 1208,
      "🥟": 1209,
      "🥠": 1210,
      "🥡": 1211,
      "🥢": 1212,
      "🥣": 1213,
      "🥤": 1214,
      "🥥": 1215,
      "🥦": 1216,
      "🥧": 1217,
      "🥨": 1218,
      "🥩": 1219,
      "🥪": 1220,
      "🥫": 1221,
      "🥬": 1222,
      "🥭": 1223,
      "🥮": 1224,
      "🥯": 1225,
      "🥰": 1226,
      "🥱": 1227,
      "🥲": 1228,
      "🥳": 1229,
      "🥴": 1230,
      "🥵": 1231,
      "🥶": 1232,
      "🥷": 1233,
      "🥸": 1234,
      "🥺": 1235,
      "🥻": 1236,
      "🥼": 1237,
      "🥽": 1238,
      "🥾": 1239,
      "🥿": 1240,
      "🦀": 1241,
      "🦁": 1242,
      "🦂": 1243,
      "🦃": 1244,
      "🦄": 1245,
      "🦅": 1246,
      "🦆": 1247,
      "🦇": 1248,
      "🦈": 1249,
      "🦉": 1250,
      "🦊": 1251,
      "🦋": 1252,
      "🦌": 1253,
      "🦍": 1254,
      "🦎": 1255,
      "🦏": 1256,
      "🦐": 1257,
      "🦑": 1258,
      "🦒": 1259,
      "🦓": 1260,
      "🦔": 1261,
      "🦕": 1262,
      "🦖": 1263,
      "🦗": 1264,
      "🦘": 1265,
      "🦙": 1266,
      "🦚": 1267,
      "🦛": 1268,
      "🦜": 1269,
      "🦝": 1270,
      "🦞": 1271,
      "🦟": 1272,
      "🦠": 1273,
      "🦡": 1274,
      "🦢": 1275,
      "🦣": 1276,
      "🦤": 1277,
      "🦥": 1278,
      "🦦": 1279,
      "🦧": 1280,
      "🦨": 1281,
      "🦩": 1282,
      "🦪": 1283,
      "🦫": 1284,
      "🦬": 1285,
      "🦭": 1286,
      "🦮": 1287,
      "🦯": 1288,
      "🦰": 1289,
      "🦱": 1290,
      "🦲": 1291,
      "🦳": 1292,
      "🦴": 1293,
      "🦵": 1294,
      "🦶": 1295,
      "🦷": 1296,
      "🦸": 1297,
      "🦹": 1298,
      "🦺": 1299,
      "🦻": 1300,
      "🦼": 1301,
      "🦽": 1302,
      "🦾": 1303,
      "🦿": 1304,
      "🧀": 1305,
      "🧁": 1306,
      "🧂": 1307,
      "🧃": 1308,
      "🧄": 1309,
      "🧅": 1310,
      "🧆": 1311,
      "🧇": 1312,
      "🧈": 1313,
      "🧉": 1314,
      "🧊": 1315,
      "🧋": 1316,
      "🧍": 1317,
      "🧎": 1318,
      "🧏": 1319,
      "🧐": 1320,
      "🧑": 1321,
      "🧒": 1322,
      "🧓": 1323,
      "🧔": 1324,
      "🧕": 1325,
      "🧖": 1326,
      "🧗": 1327,
      "🧘": 1328,
      "🧙": 1329,
      "🧚": 1330,
      "🧛": 1331,
      "🧜": 1332,
      "🧝": 1333,
      "🧞": 1334,
      "🧟": 1335,
      "🧠": 1336,
      "🧡": 1337,
      "🧢": 1338,
      "🧣": 1339,
      "🧤": 1340,
      "🧥": 1341,
      "🧦": 1342,
      "🧧": 1343,
      "🧨": 1344,
      "🧩": 1345,
      "🧪": 1346,
      "🧫": 1347,
      "🧬": 1348,
      "🧭": 1349,
      "🧮": 1350,
      "🧯": 1351,
      "🧰": 1352,
      "🧱": 1353,
      "🧲": 1354,
      "🧳": 1355,
      "🧴": 1356,
      "🧵": 1357,
      "🧶": 1358,
      "🧷": 1359,
      "🧸": 1360,
      "🧹": 1361,
      "🧺": 1362,
      "🧻": 1363,
      "🧼": 1364,
      "🧽": 1365,
      "🧾": 1366,
      "🧿": 1367,
      "🩰": 1368,
      "🩱": 1369,
      "🩲": 1370,
      "🩳": 1371,
      "🩴": 1372,
      "🩸": 1373,
      "🩹": 1374,
      "🩺": 1375,
      "🪀": 1376,
      "🪁": 1377,
      "🪂": 1378,
      "🪃": 1379,
      "🪄": 1380,
      "🪆": 1381,
      "🪐": 1382,
      "🪑": 1383,
      "🪒": 1384,
      "🪓": 1385,
      "🪔": 1386,
      "🪕": 1387,
      "🪖": 1388,
      "🪗": 1389,
      "🪘": 1390,
      "🪙": 1391,
      "🪚": 1392,
      "🪛": 1393,
      "🪜": 1394,
      "🪝": 1395,
      "🪞": 1396,
      "🪟": 1397,
      "🪠": 1398,
      "🪡": 1399,
      "🪢": 1400,
      "🪣": 1401,
      "🪤": 1402,
      "🪥": 1403,
      "🪦": 1404,
      "🪧": 1405,
      "🪨": 1406,
      "🪰": 1407,
      "🪱": 1408,
      "🪲": 1409,
      "🪳": 1410,
      "🪴": 1411,
      "🪵": 1412,
      "🪶": 1413,
      "🫀": 1414,
      "🫁": 1415,
      "🫂": 1416,
      "🫐": 1417,
      "🫑": 1418,
      "🫒": 1419,
      "🫓": 1420,
      "🫔": 1421,
      "🫕": 1422,
      "🫖": 1423,
      "󠁢": 1424,
      "󠁣": 1425,
      "󠁥": 1426,
      "󠁧": 1427,
      "󠁬": 1428,
      "󠁮": 1429,
      "󠁳": 1430,
      "󠁴": 1431,
      "󠁷": 1432,
      "󠁿": 1433,
      "ha": 1434,
      "hi": 1435,
      "ar": 1436,
      "in": 1437,
      "he": 1438,
      "an": 1439,
      "ho": 1440,
      "at": 1441,
      "se": 1442,
      "me": 1443,
      "na": 1444,
      "hai": 1445,
      "..": 1446,
      "re": 1447,
      "al": 1448,
      "to": 1449,
      "on": 1450,
      "ya": 1451,
      "ke": 1452,
      "te": 1453,
      "is": 1454,
      "ka": 1455,
      "ne": 1456,
      "ye": 1457,
      "de": 1458,
      "ta": 1459,
      "le": 1460,
      "ra": 1461,
      "sa": 1462,
      "ki": 1463,
      "ko": 1464,
      "or": 1465,
      "kar": 1466,
      "it": 1467,
      "ba": 1468,
      "di": 1469,
      "ur": 1470,
      "la": 1471,
      "ma": 1472,
      "ga": 1473,
      "the": 1474,
      "li": 1475,
      "bhi": 1476,
      "hu": 1477,
      "st": 1478,
      "ap": 1479,
      "ch": 1480,
      "lo": 1481,
      "ve": 1482,
      "ti": 1483,
      "un": 1484,
      "ing": 1485,
      "ja": 1486,
      "pe": 1487,
      "cha": 1488,
      "us": 1489,
      "ro": 1490,
      "nahi": 1491,
      "be": 1492,
      "and": 1493,
      "ge": 1494,
      "tu": 1495,
      "ri": 1496,
      "as": 1497,
      "da": 1498,
      "tha": 1499,
      "ou": 1500,
      "am": 1501,
      "ir": 1502,
      "ce": 1503,
      "bo": 1504,
      "pa": 1505,
      "aa": 1506,
      "uch": 1507,
      "no": 1508,
      "il": 1509,
      "...": 1510,
      "ise": 1511,
      "so": 1512,
      "we": 1513,
      "thi": 1514,
      "are": 1515,
      "of": 1516,
      "co": 1517,
      "aur": 1518,
      "do": 1519,
      "wa": 1520,
      "ni": 1521,
      "en": 1522,
      "ly": 1523,
      "kuch": 1524,
      "kha": 1525,
      "kya": 1526,
      "ut": 1527,
      "ati": 1528,
      "ac": 1529,
      "go": 1530,
      "mo": 1531,
      "ab": 1532,
      "nt": 1533,
      "mu": 1534,
      "har": 1535,
      "si": 1536,
      "nhi": 1537,
      "ate": 1538,
      "tum": 1539,
      "you": 1540,
      "ter": 1541,
      "ad": 1542,
      "liye": 1543,
      "for": 1544,
      "ek": 1545,
      "ata": 1546,
      "hota": 1547,
      "jhe": 1548,
      "kr": 1549,
      "gi": 1550,
      "po": 1551,
      "par": 1552,
      "toh": 1553,
      "kh": 1554,
      "wo": 1555,
      "jo": 1556,
      "man": 1557,
      "ver": 1558,
      "vi": 1559,
      "ss": 1560,
      "sab": 1561,
      "hain": 1562,
      "aap": 1563,
      "sha": 1564,
      "um": 1565,
      "wal": 1566,
      "fe": 1567,
      "mein": 1568,
      "su": 1569,
      "bhai": 1570,
      "nd": 1571,
      "koi": 1572,
      "kis": 1573,
      "mi": 1574,
      "sh": 1575,
      "ky": 1576,
      "ul": 1577,
      "ban": 1578,
      "es": 1579,
      "et": 1580,
      "log": 1581,
      "hum": 1582,
      "th": 1583,
      "apne": 1584,
      "mujhe": 1585,
      "but": 1586,
      "con": 1587,
      "ji": 1588,
      "gh": 1589,
      "wit": 1590,
      "gaya": 1591,
      "rs": 1592,
      "han": 1593,
      "hir": 1594,
      "ck": 1595,
      "che": 1596,
      "main": 1597,
      "ag": 1598,
      "pro": 1599,
      "raha": 1600,
      "one": 1601,
      "that": 1602,
      "ath": 1603,
      "bol": 1604,
      "??": 1605,
      "this": 1606,
      "sir": 1607,
      "....": 1608,
      "ple": 1609,
      "😂😂": 1610,
      "our": 1611,
      "ation": 1612,
      "ry": 1613,
      "phir": 1614,
      "ll": 1615,
      "rahe": 1616,
      "mat": 1617,
      "ol": 1618,
      "all": 1619,
      "ara": 1620,
      "cho": 1621,
      "my": 1622,
      "ts": 1623,
      "mere": 1624,
      "ue": 1625,
      "day": 1626,
      "kaise": 1627,
      "bi": 1628,
      "!!": 1629,
      "kiya": 1630,
      "ment": 1631,
      "aise": 1632,
      "ic": 1633,
      "nge": 1634,
      "je": 1635,
      "mai": 1636,
      "fa": 1637,
      "baat": 1638,
      "hiye": 1639,
      "ill": 1640,
      "tion": 1641,
      "up": 1642,
      "ng": 1643,
      "ex": 1644,
      "00": 1645,
      "hone": 1646,
      "vo": 1647,
      "ust": 1648,
      "sho": 1649,
      "ana": 1650,
      "use": 1651,
      "abhi": 1652,
      "was": 1653,
      "com": 1654,
      "ed": 1655,
      "with": 1656,
      "yi": 1657,
      "kabhi": 1658,
      "aaj": 1659,
      "khu": 1660,
      "time": 1661,
      "not": 1662,
      "now": 1663,
      "kal": 1664,
      "pr": 1665,
      "pp": 1666,
      "don": 1667,
      "chahiye": 1668,
      "dekh": 1669,
      "per": 1670,
      "mar": 1671,
      "od": 1672,
      "lag": 1673,
      "dia": 1674,
      "hat": 1675,
      "hy": 1676,
      "chi": 1677,
      "like": 1678,
      "ine": 1679,
      "out": 1680,
      "ase": 1681,
      "ght": 1682,
      "ct": 1683,
      "fi": 1684,
      "id": 1685,
      "ld": 1686,
      "hoga": 1687,
      "wor": 1688,
      "isa": 1689,
      "her": 1690,
      "jab": 1691,
      "tho": 1692,
      "ci": 1693,
      "twe": 1694,
      "yeh": 1695,
      "tak": 1696,
      "bar": 1697,
      "diya": 1698,
      "can": 1699,
      "tan": 1700,
      "der": 1701,
      "shi": 1702,
      "ity": 1703,
      "ble": 1704,
      "sahi": 1705,
      "el": 1706,
      "bha": 1707,
      "mp": 1708,
      "have": 1709,
      "ind": 1710,
      "mil": 1711,
      "ane": 1712,
      "fir": 1713,
      "ty": 1714,
      "kisi": 1715,
      "pata": 1716,
      "yaar": 1717,
      "tweet": 1718,
      "gal": 1719,
      "20": 1720,
      "his": 1721,
      "sak": 1722,
      "bad": 1723,
      "hen": 1724,
      "din": 1725,
      "pas": 1726,
      "uske": 1727,
      "they": 1728,
      "ys": 1729,
      "amp": 1730,
      "itna": 1731,
      "karo": 1732,
      "ong": 1733,
      "will": 1734,
      "logo": 1735,
      "ans": 1736,
      "hua": 1737,
      "ted": 1738,
      "jaye": 1739,
      "your": 1740,
      "hle": 1741,
      "pre": 1742,
      "hut": 1743,
      "ally": 1744,
      "nk": 1745,
      "just": 1746,
      "ca": 1747,
      "kyun": 1748,
      "very": 1749,
      "pu": 1750,
      "ish": 1751,
      "du": 1752,
      "pl": 1753,
      "uru": 1754,
      "ak": 1755,
      "khan": 1756,
      "😭😭": 1757,
      "dil": 1758,
      "agar": 1759,
      "im": 1760,
      "bu": 1761,
      "by": 1762,
      "ant": 1763,
      "dar": 1764,
      "khe": 1765,
      "rahi": 1766,
      "rom": 1767,
      "ok": 1768,
      "end": 1769,
      "love": 1770,
      "sam": 1771,
      "er": 1772,
      "she": 1773,
      "umar": 1774,
      "gu": 1775,
      "ru": 1776,
      "from": 1777,
      "if": 1778,
      "af": 1779,
      "pla": 1780,
      "kyu": 1781,
      "thing": 1782,
      "ort": 1783,
      "sal": 1784,
      "ai": 1785,
      "tere": 1786,
      "karte": 1787,
      "get": 1788,
      "chal": 1789,
      "wale": 1790,
      "ion": 1791,
      "karne": 1792,
      "bat": 1793,
      "jh": 1794,
      "some": 1795,
      "que": 1796,
      "karna": 1797,
      "min": 1798,
      "fo": 1799,
      "rha": 1800,
      "khud": 1801,
      "what": 1802,
      "wala": 1803,
      "baad": 1804,
      "who": 1805,
      "sath": 1806,
      "kin": 1807,
      "chu": 1808,
      "kare": 1809,
      "inke": 1810,
      "know": 1811,
      "nal": 1812,
      "ist": 1813,
      "sto": 1814,
      "kho": 1815,
      "ali": 1816,
      "gayi": 1817,
      "has": 1818,
      "ari": 1819,
      "mera": 1820,
      "pi": 1821,
      "kam": 1822,
      "ham": 1823,
      "10": 1824,
      "woh": 1825,
      "any": 1826,
      "pad": 1827,
      "eve": 1828,
      "low": 1829,
      "sirf": 1830,
      "spe": 1831,
      "new": 1832,
      "ran": 1833,
      "🤣🤣": 1834,
      "bas": 1835,
      "ud": 1836,
      "him": 1837,
      "india": 1838,
      "tra": 1839,
      "show": 1840,
      "nai": 1841,
      "kit": 1842,
      "say": 1843,
      "ther": 1844,
      "war": 1845,
      "bola": 1846,
      "qu": 1847,
      "ree": 1848,
      "aye": 1849,
      "karan": 1850,
      "desh": 1851,
      "vie": 1852,
      "tr": 1853,
      "meri": 1854,
      "kaha": 1855,
      "Ye": 1856,
      "In": 1857,
      "kistan": 1858,
      "hind": 1859,
      "jan": 1860,
      "ting": 1861,
      "va": 1862,
      "pehle": 1863,
      "bahut": 1864,
      "ep": 1865,
      "fol": 1866,
      "hara": 1867,
      "atik": 1868,
      "please": 1869,
      "Me": 1870,
      "rhe": 1871,
      "kab": 1872,
      "yada": 1873,
      "kaam": 1874,
      "sk": 1875,
      "iss": 1876,
      "coun": 1877,
      "lad": 1878,
      "reh": 1879,
      "ning": 1880,
      "hoti": 1881,
      "star": 1882,
      "tujhe": 1883,
      "gre": 1884,
      "ction": 1885,
      "bata": 1886,
      "ber": 1887,
      "lekin": 1888,
      "ala": 1889,
      "gya": 1890,
      "good": 1891,
      "see": 1892,
      "apni": 1893,
      "aisa": 1894,
      "au": 1895,
      "supp": 1896,
      "ful": 1897,
      "ot": 1898,
      "king": 1899,
      "ani": 1900,
      "here": 1901,
      "isi": 1902,
      "tre": 1903,
      "laga": 1904,
      "ghar": 1905,
      "ople": 1906,
      "accha": 1907,
      "sama": 1908,
      "ous": 1909,
      "tumhe": 1910,
      "bana": 1911,
      "about": 1912,
      "ach": 1913,
      "jis": 1914,
      "ms": 1915,
      "people": 1916,
      "only": 1917,
      "year": 1918,
      "band": 1919,
      "pratik": 1920,
      "cke": 1921,
      "every": 1922,
      "aj": 1923,
      "baar": 1924,
      "sun": 1925,
      "guru": 1926,
      "khi": 1927,
      "fri": 1928,
      "sp": 1929,
      "mus": 1930,
      "hote": 1931,
      "ten": 1932,
      "modi": 1933,
      "lu": 1934,
      "hot": 1935,
      "ahi": 1936,
      "cre": 1937,
      "aga": 1938,
      "gar": 1939,
      "om": 1940,
      "Te": 1941,
      "apna": 1942,
      "Bhai": 1943,
      "more": 1944,
      "saal": 1945,
      "und": 1946,
      "dikha": 1947,
      "karta": 1948,
      "jaise": 1949,
      "tro": 1950,
      "how": 1951,
      "gaye": 1952,
      "life": 1953,
      "its": 1954,
      "za": 1955,
      "tab": 1956,
      "way": 1957,
      "sion": 1958,
      "mile": 1959,
      "count": 1960,
      "cal": 1961,
      "when": 1962,
      "naam": 1963,
      "come": 1964,
      "ang": 1965,
      "pyaar": 1966,
      "them": 1967,
      "lagta": 1968,
      "cri": 1969,
      "think": 1970,
      "pri": 1971,
      "keh": 1972,
      "support": 1973,
      "ser": 1974,
      "pakistan": 1975,
      "pass": 1976,
      "team": 1977,
      "age": 1978,
      "make": 1979,
      "sar": 1980,
      "Ma": 1981,
      "unke": 1982,
      "friend": 1983,
      "kaun": 1984,
      "cor": 1985,
      "iti": 1986,
      "haha": 1987,
      "vide": 1988,
      "saath": 1989,
      "kk": 1990,
      "wn": 1991,
      "sta": 1992,
      "rep": 1993,
      "feel": 1994,
      "hel": 1995,
      "again": 1996,
      "dis": 1997,
      "aaye": 1998,
      "Ha": 1999,
      "hal": 2000,
      "wali": 2001,
      "why": 2002,
      "jata": 2003,
      "mon": 2004,
      "nce": 2005,
      "ig": 2006,
      "did": 2007,
      "cle": 2008,
      "liya": 2009,
      "bro": 2010,
      "oh": 2011,
      "teja": 2012,
      "zar": 2013,
      "ner": 2014,
      "had": 2015,
      "back": 2016,
      "ould": 2017,
      "®®": 2018,
      "bs": 2019,
      "their": 2020,
      "men": 2021,
      "usko": 2022,
      "ny": 2023,
      "ds": 2024,
      "thank": 2025,
      "witter": 2026,
      "maine": 2027,
      "acha": 2028,
      "whi": 2029,
      "yar": 2030,
      "ale": 2031,
      "best": 2032,
      "line": 2033,
      "led": 2034,
      "sakta": 2035,
      "raat": 2036,
      "yo": 2037,
      "same": 2038,
      "tar": 2039,
      "lea": 2040,
      "saare": 2041,
      "hun": 2042,
      "tor": 2043,
      "too": 2044,
      "nikal": 2045,
      "ily": 2046,
      "even": 2047,
      "itni": 2048,
      "fam": 2049,
      "ina": 2050,
      "yan": 2051,
      "dus": 2052,
      "read": 2053,
      "ram": 2054,
      "happ": 2055,
      "sb": 2056,
      "bus": 2057,
      "then": 2058,
      "Khan": 2059,
      "wan": 2060,
      "uni": 2061,
      "sel": 2062,
      "there": 2063,
      "HA": 2064,
      "De": 2065,
      "follow": 2066,
      "bhar": 2067,
      "15": 2068,
      "pta": 2069,
      "hindu": 2070,
      "tumha": 2071,
      "game": 2072,
      "fin": 2073,
      "ice": 2074,
      "op": 2075,
      "tal": 2076,
      "pur": 2077,
      "hona": 2078,
      "rat": 2079,
      "take": 2080,
      "dono": 2081,
      "bhe": 2082,
      "badi": 2083,
      "real": 2084,
      "202": 2085,
      "side": 2086,
      "pos": 2087,
      "tara": 2088,
      "stand": 2089,
      "ture": 2090,
      "other": 2091,
      "soch": 2092,
      "said": 2093,
      "kon": 2094,
      "jp": 2095,
      "ze": 2096,
      "over": 2097,
      "dena": 2098,
      "dete": 2099,
      "pra": 2100,
      "pic": 2101,
      "sakte": 2102,
      "also": 2103,
      "lah": 2104,
      "Mu": 2105,
      "cause": 2106,
      "last": 2107,
      "galat": 2108,
      "bb": 2109,
      "red": 2110,
      "san": 2111,
      "ech": 2112,
      "lab": 2113,
      "nahin": 2114,
      "ft": 2115,
      "itne": 2116,
      ".....": 2117,
      "kia": 2118,
      "az": 2119,
      "indi": 2120,
      "pap": 2121,
      "kro": 2122,
      "video": 2123,
      "sy": 2124,
      "jee": 2125,
      "ways": 2126,
      "100": 2127,
      "The": 2128,
      "car": 2129,
      "rhi": 2130,
      "ated": 2131,
      "wat": 2132,
      "mei": 2133,
      "ah": 2134,
      "win": 2135,
      "aya": 2136,
      "sing": 2137,
      "after": 2138,
      "want": 2139,
      "dekha": 2140,
      "ason": 2141,
      "tiya": 2142,
      "cu": 2143,
      "fan": 2144,
      "cr": 2145,
      "vote": 2146,
      "ving": 2147,
      "Tum": 2148,
      "Ra": 2149,
      "fans": 2150,
      "off": 2151,
      "onal": 2152,
      "pen": 2153,
      "pm": 2154,
      "twitter": 2155,
      "aaya": 2156,
      "app": 2157,
      "mas": 2158,
      "wer": 2159,
      "ju": 2160,
      "happy": 2161,
      "test": 2162,
      "bir": 2163,
      "12": 2164,
      "post": 2165,
      "jal": 2166,
      "bjp": 2167,
      "shoul": 2168,
      "right": 2169,
      "dy": 2170,
      "exam": 2171,
      "br": 2172,
      "act": 2173,
      "cy": 2174,
      "may": 2175,
      "need": 2176,
      "jao": 2177,
      "help": 2178,
      "under": 2179,
      "inda": 2180,
      "khel": 2181,
      "int": 2182,
      "hear": 2183,
      "should": 2184,
      "big": 2185,
      "uska": 2186,
      "bc": 2187,
      "unhe": 2188,
      "yaad": 2189,
      "trend": 2190,
      "rakh": 2191,
      "tain": 2192,
      "col": 2193,
      "match": 2194,
      "sed": 2195,
      "ude": 2196,
      "jaa": 2197,
      "proble": 2198,
      "party": 2199,
      "acche": 2200,
      "pan": 2201,
      "hogi": 2202,
      "lim": 2203,
      "than": 2204,
      "rong": 2205,
      "much": 2206,
      "name": 2207,
      "yes": 2208,
      "ence": 2209,
      "19": 2210,
      "???": 2211,
      "karke": 2212,
      "hn": 2213,
      "jar": 2214,
      "😂😂😂": 2215,
      "bt": 2216,
      "far": 2217,
      "ance": 2218,
      "most": 2219,
      "yaha": 2220,
      "lete": 2221,
      "hoon": 2222,
      "Hum": 2223,
      "pare": 2224,
      "mor": 2225,
      "mal": 2226,
      "bh": 2227,
      "sid": 2228,
      "stop": 2229,
      "chah": 2230,
      "comment": 2231,
      "jyada": 2232,
      "seri": 2233,
      "Mo": 2234,
      "mm": 2235,
      "ker": 2236,
      "self": 2237,
      "hul": 2238,
      "tera": 2239,
      "gir": 2240,
      "lit": 2241,
      "krna": 2242,
      "aata": 2243,
      "work": 2244,
      "salman": 2245,
      "cla": 2246,
      "chan": 2247,
      "krte": 2248,
      "mis": 2249,
      "30": 2250,
      "always": 2251,
      "change": 2252,
      "lt": 2253,
      "No": 2254,
      "jayega": 2255,
      "look": 2256,
      "It": 2257,
      "because": 2258,
      "let": 2259,
      "Kuch": 2260,
      "free": 2261,
      "gro": 2262,
      "Mujhe": 2263,
      "hame": 2264,
      "lic": 2265,
      "deta": 2266,
      "song": 2267,
      "oo": 2268,
      "never": 2269,
      "ele": 2270,
      "dam": 2271,
      "ugh": 2272,
      "first": 2273,
      "wers": 2274,
      "hr": 2275,
      "bole": 2276,
      "Aur": 2277,
      "Is": 2278,
      "jaan": 2279,
      "try": 2280,
      "dost": 2281,
      "bil": 2282,
      "tri": 2283,
      "krne": 2284,
      "give": 2285,
      "Ap": 2286,
      "yahi": 2287,
      "world": 2288,
      "AR": 2289,
      "!!!": 2290,
      "beech": 2291,
      "dekho": 2292,
      "Ho": 2293,
      "lage": 2294,
      "would": 2295,
      "11": 2296,
      "mag": 2297,
      "kre": 2298,
      "problem": 2299,
      "enge": 2300,
      "matlab": 2301,
      "cket": 2302,
      "blo": 2303,
      ",,": 2304,
      "teri": 2305,
      "He": 2306,
      "fore": 2307,
      "To": 2308,
      "Kar": 2309,
      "reply": 2310,
      "kitna": 2311,
      "today": 2312,
      "tam": 2313,
      "unga": 2314,
      "family": 2315,
      "ide": 2316,
      "still": 2317,
      "ff": 2318,
      "chale": 2319,
      "cap": 2320,
      "does": 2321,
      "dikh": 2322,
      "live": 2323,
      "gha": 2324,
      "Sa": 2325,
      "xt": 2326,
      "against": 2327,
      "baap": 2328,
      "dega": 2329,
      "pat": 2330,
      "ps": 2331,
      "aapko": 2332,
      "chala": 2333,
      "ure": 2334,
      "IN": 2335,
      "jeet": 2336,
      "movie": 2337,
      "been": 2338,
      "isliye": 2339,
      "quest": 2340,
      "achi": 2341,
      "lg": 2342,
      "hui": 2343,
      "ters": 2344,
      "hant": 2345,
      "call": 2346,
      "thday": 2347,
      "uski": 2348,
      "mer": 2349,
      "playe": 2350,
      "pak": 2351,
      "bina": 2352,
      "ffe": 2353,
      "yad": 2354,
      "pho": 2355,
      "well": 2356,
      "ary": 2357,
      "less": 2358,
      "sen": 2359,
      "sm": 2360,
      "care": 2361,
      "fil": 2362,
      "got": 2363,
      "__": 2364,
      "kay": 2365,
      "were": 2366,
      "kahi": 2367,
      "ition": 2368,
      "mber": 2369,
      "tag": 2370,
      "hue": 2371,
      "inko": 2372,
      "cial": 2373,
      "really": 2374,
      "mila": 2375,
      "news": 2376,
      "lena": 2377,
      "usse": 2378,
      "sor": 2379,
      "cent": 2380,
      "bet": 2381,
      "logon": 2382,
      "samajh": 2383,
      "wait": 2384,
      "fake": 2385,
      "ses": 2386,
      "sur": 2387,
      "AN": 2388,
      "sach": 2389,
      "Sir": 2390,
      "Kya": 2391,
      "down": 2392,
      "dal": 2393,
      "aad": 2394,
      "val": 2395,
      "Ab": 2396,
      "pt": 2397,
      "ations": 2398,
      "these": 2399,
      "case": 2400,
      "ladki": 2401,
      "bolo": 2402,
      "Tu": 2403,
      "rain": 2404,
      "🙏🙏": 2405,
      "jha": 2406,
      "media": 2407,
      "mre": 2408,
      "fav": 2409,
      "pub": 2410,
      "nts": 2411,
      "gt": 2412,
      "state": 2413,
      "poli": 2414,
      "ship": 2415,
      "play": 2416,
      "apko": 2417,
      "ite": 2418,
      "Pa": 2419,
      "vt": 2420,
      "del": 2421,
      "karti": 2422,
      "hit": 2423,
      "tarah": 2424,
      "char": 2425,
      "maa": 2426,
      "chai": 2427,
      "ding": 2428,
      "rah": 2429,
      "fu": 2430,
      "sad": 2431,
      "pers": 2432,
      "week": 2433,
      "being": 2434,
      "tweets": 2435,
      "hate": 2436,
      "bre": 2437,
      "birthday": 2438,
      "kul": 2439,
      "maz": 2440,
      "haan": 2441,
      "kat": 2442,
      "Ka": 2443,
      "zinda": 2444,
      "ded": 2445,
      "ready": 2446,
      "hand": 2447,
      "ste": 2448,
      "plz": 2449,
      "paas": 2450,
      "rel": 2451,
      "cus": 2452,
      "Ba": 2453,
      "gress": 2454,
      "tou": 2455,
      "ash": 2456,
      "bahar": 2457,
      "respe": 2458,
      "rab": 2459,
      "mt": 2460,
      "dra": 2461,
      "waise": 2462,
      "thoda": 2463,
      "jaga": 2464,
      "unko": 2465,
      "girl": 2466,
      "dhar": 2467,
      "chota": 2468,
      "dont": 2469,
      "hab": 2470,
      "jiye": 2471,
      "os": 2472,
      "start": 2473,
      "gand": 2474,
      "iso": 2475,
      "paise": 2476,
      "14": 2477,
      "alag": 2478,
      "So": 2479,
      "usne": 2480,
      "ush": 2481,
      "50": 2482,
      "chee": 2483,
      "bhag": 2484,
      "pura": 2485,
      "better": 2486,
      "Ko": 2487,
      "lam": 2488,
      "vel": 2489,
      "cti": 2490,
      "tumhare": 2491,
      "many": 2492,
      "where": 2493,
      "vis": 2494,
      "hope": 2495,
      "behen": 2496,
      "wahi": 2497,
      "which": 2498,
      "bolte": 2499,
      "form": 2500,
      "next": 2501,
      "duni": 2502,
      "ative": 2503,
      "likh": 2504,
      "top": 2505,
      "2021": 2506,
      "part": 2507,
      "est": 2508,
      "ned": 2509,
      "hawa": 2510,
      "mita": 2511,
      "guys": 2512,
      "public": 2513,
      "ku": 2514,
      "denge": 2515,
      "bohot": 2516,
      "vir": 2517,
      "rt": 2518,
      "sin": 2519,
      "account": 2520,
      "khatam": 2521,
      "gye": 2522,
      "god": 2523,
      "shan": 2524,
      "ctor": 2525,
      "krta": 2526,
      "Jo": 2527,
      "jana": 2528,
      "amne": 2529,
      "But": 2530,
      "phone": 2531,
      "You": 2532,
      "inter": 2533,
      "congress": 2534,
      "jay": 2535,
      "ister": 2536,
      "scho": 2537,
      "Nahi": 2538,
      "sarkar": 2539,
      "kan": 2540,
      "bait": 2541,
      "les": 2542,
      "expe": 2543,
      "mes": 2544,
      "bura": 2545,
      "fr": 2546,
      "wi": 2547,
      "date": 2548,
      "polit": 2549,
      "13": 2550,
      "person": 2551,
      "Abhi": 2552,
      "politic": 2553,
      "Ek": 2554,
      "karenge": 2555,
      "nehi": 2556,
      "temp": 2557,
      "years": 2558,
      "cur": 2559,
      "sorry": 2560,
      "cro": 2561,
      "lol": 2562,
      "hm": 2563,
      "keep": 2564,
      "urt": 2565,
      "bada": 2566,
      "ks": 2567,
      "jai": 2568,
      "maan": 2569,
      "safe": 2570,
      "won": 2571,
      "gan": 2572,
      "saan": 2573,
      "aage": 2574,
      "maar": 2575,
      "hume": 2576,
      "baki": 2577,
      "acchi": 2578,
      "boss": 2579,
      "gra": 2580,
      "num": 2581,
      "days": 2582,
      "ent": 2583,
      "nor": 2584,
      "govt": 2585,
      "sabse": 2586,
      "saamne": 2587,
      "ger": 2588,
      "bta": 2589,
      "mean": 2590,
      "jate": 2591,
      "photo": 2592,
      "tm": 2593,
      "such": 2594,
      "indian": 2595,
      "action": 2596,
      "mum": 2597,
      "nee": 2598,
      "naa": 2599,
      "duniya": 2600,
      "janta": 2601,
      "Lo": 2602,
      "cul": 2603,
      "muslim": 2604,
      "aati": 2605,
      "lar": 2606,
      "peh": 2607,
      "bho": 2608,
      "dha": 2609,
      "kabar": 2610,
      "asim": 2611,
      "zyada": 2612,
      "pay": 2613,
      "police": 2614,
      "night": 2615,
      "school": 2616,
      "pee": 2617,
      "aapke": 2618,
      "padh": 2619,
      "hein": 2620,
      "poo": 2621,
      "paisa": 2622,
      "month": 2623,
      "thik": 2624,
      "jaaye": 2625,
      "itu": 2626,
      "acc": 2627,
      "task": 2628,
      "walo": 2629,
      "ler": 2630,
      "khush": 2631,
      "riaz": 2632,
      "jagah": 2633,
      "kuchh": 2634,
      "bach": 2635,
      "late": 2636,
      "block": 2637,
      "honge": 2638,
      "des": 2639,
      "hay": 2640,
      "jah": 2641,
      "km": 2642,
      "view": 2643,
      "bla": 2644,
      "miss": 2645,
      "uri": 2646,
      "chor": 2647,
      "season": 2648,
      "18": 2649,
      "respect": 2650,
      "Al": 2651,
      "pasand": 2652,
      "set": 2653,
      "ef": 2654,
      "ake": 2655,
      "isko": 2656,
      "nu": 2657,
      "Be": 2658,
      "hamare": 2659,
      "den": 2660,
      "ob": 2661,
      "adi": 2662,
      "ress": 2663,
      "election": 2664,
      "ay": 2665,
      "true": 2666,
      "kitne": 2667,
      "bacha": 2668,
      "bl": 2669,
      "dene": 2670,
      "hee": 2671,
      "going": 2672,
      "tur": 2673,
      "ces": 2674,
      "imp": 2675,
      "follo": 2676,
      "fun": 2677,
      "episo": 2678,
      "Ya": 2679,
      "Sahi": 2680,
      "ghan": 2681,
      "nment": 2682,
      "nis": 2683,
      "ER": 2684,
      "plan": 2685,
      "samjh": 2686,
      "point": 2687,
      "Ki": 2688,
      "gyi": 2689,
      "bare": 2690,
      "son": 2691,
      "oor": 2692,
      "clo": 2693,
      "shame": 2694,
      "ache": 2695,
      "jati": 2696,
      "Are": 2697,
      "lin": 2698,
      "ved": 2699,
      "trol": 2700,
      "clear": 2701,
      "bal": 2702,
      "tem": 2703,
      "sat": 2704,
      "cess": 2705,
      "cer": 2706,
      "India": 2707,
      "res": 2708,
      "ational": 2709,
      "We": 2710,
      "book": 2711,
      "iska": 2712,
      "raj": 2713,
      "dum": 2714,
      "cele": 2715,
      "pyar": 2716,
      "rent": 2717,
      "ism": 2718,
      "dekhna": 2719,
      "cra": 2720,
      "jb": 2721,
      "nh": 2722,
      "choti": 2723,
      "karega": 2724,
      "wind": 2725,
      "hon": 2726,
      "zi": 2727,
      "nel": 2728,
      "hpa": 2729,
      "dur": 2730,
      "tell": 2731,
      "gover": 2732,
      "sus": 2733,
      "utha": 2734,
      "pal": 2735,
      "ket": 2736,
      "diye": 2737,
      "face": 2738,
      "And": 2739,
      "😂😂😂😂": 2740,
      "ating": 2741,
      "bolne": 2742,
      "pls": 2743,
      "country": 2744,
      "serious": 2745,
      "zindagi": 2746,
      "bak": 2747,
      "check": 2748,
      "wish": 2749,
      "agr": 2750,
      "someone": 2751,
      "Se": 2752,
      "lease": 2753,
      "Aap": 2754,
      "ung": 2755,
      "sabko": 2756,
      "great": 2757,
      "kiye": 2758,
      "Re": 2759,
      "tk": 2760,
      "sim": 2761,
      "jaldi": 2762,
      "mind": 2763,
      "full": 2764,
      "job": 2765,
      "tes": 2766,
      "Us": 2767,
      "bolna": 2768,
      "shar": 2769,
      "Hai": 2770,
      "bilkul": 2771,
      "lot": 2772,
      "hoo": 2773,
      "number": 2774,
      "Sha": 2775,
      "000": 2776,
      "Ne": 2777,
      "run": 2778,
      "yahan": 2779,
      "hh": 2780,
      "long": 2781,
      "av": 2782,
      "❤❤": 2783,
      "promo": 2784,
      "Modi": 2785,
      "als": 2786,
      "sure": 2787,
      "yr": 2788,
      "gr": 2789,
      "waq": 2790,
      "allah": 2791,
      "upar": 2792,
      "understand": 2793,
      "power": 2794,
      "question": 2795,
      "saying": 2796,
      "qui": 2797,
      "urat": 2798,
      "comple": 2799,
      "class": 2800,
      "ada": 2801,
      "reli": 2802,
      "Bar": 2803,
      "watch": 2804,
      "ked": 2805,
      "mari": 2806,
      "shamita": 2807,
      "lege": 2808,
      "phy": 2809,
      "wrong": 2810,
      "mir": 2811,
      "sti": 2812,
      "py": 2813,
      "aate": 2814,
      "Go": 2815,
      "hap": 2816,
      "Guru": 2817,
      "wap": 2818,
      "dh": 2819,
      "emo": 2820,
      "doing": 2821,
      "**": 2822,
      "mit": 2823,
      "shu": 2824,
      "pun": 2825,
      "bht": 2826,
      "alman": 2827,
      "Aaj": 2828,
      "actu": 2829,
      "issu": 2830,
      "least": 2831,
      "perso": 2832,
      "cted": 2833,
      "cs": 2834,
      "raho": 2835,
      "made": 2836,
      "gue": 2837,
      "ught": 2838,
      "eng": 2839,
      "unki": 2840,
      "cricket": 2841,
      "uss": 2842,
      "16": 2843,
      "kari": 2844,
      "tumhari": 2845,
      "paye": 2846,
      "used": 2847,
      "Hind": 2848,
      "kara": 2849,
      "Na": 2850,
      "episode": 2851,
      "high": 2852,
      "diffe": 2853,
      "mun": 2854,
      "17": 2855,
      "Sab": 2856,
      "Im": 2857,
      "sig": 2858,
      "morning": 2859,
      "fic": 2860,
      "hin": 2861,
      "jaisa": 2862,
      "Mere": 2863,
      "friends": 2864,
      "milega": 2865,
      "isse": 2866,
      "shuru": 2867,
      "aapne": 2868,
      "ON": 2869,
      "hey": 2870,
      "dusre": 2871,
      "sare": 2872,
      "mam": 2873,
      "break": 2874,
      "ves": 2875,
      "Pakistan": 2876,
      "aane": 2877,
      "Wo": 2878,
      "done": 2879,
      "gai": 2880,
      "sce": 2881,
      "pahle": 2882,
      "logi": 2883,
      "beta": 2884,
      "stude": 2885,
      "😭😭😭😭": 2886,
      "channel": 2887,
      "iness": 2888,
      "choice": 2889,
      "kash": 2890,
      "rest": 2891,
      "sakti": 2892,
      "story": 2893,
      "tune": 2894,
      "ungi": 2895,
      "galti": 2896,
      "ghatiya": 2897,
      "iske": 2898,
      "kharab": 2899,
      "jin": 2900,
      "list": 2901,
      "Pe": 2902,
      "lb": 2903,
      "reason": 2904,
      "hout": 2905,
      "personal": 2906,
      "HI": 2907,
      "aki": 2908,
      "add": 2909,
      "uth": 2910,
      "wab": 2911,
      "heart": 2912,
      "law": 2913,
      "puch": 2914,
      "share": 2915,
      "ard": 2916,
      "light": 2917,
      "body": 2918,
      "ders": 2919,
      "level": 2920,
      "strong": 2921,
      "government": 2922,
      "oney": 2923,
      "khila": 2924,
      "comp": 2925,
      "sub": 2926,
      "muh": 2927,
      "cheez": 2928,
      "everyone": 2929,
      "lie": 2930,
      "thanks": 2931,
      "chara": 2932,
      "likha": 2933,
      "Li": 2934,
      "dm": 2935,
      "wajah": 2936,
      "before": 2937,
      "leke": 2938,
      "gest": 2939,
      "Yeh": 2940,
      "lis": 2941,
      "boy": 2942,
      "bac": 2943,
      "cide": 2944,
      "dec": 2945,
      "could": 2946,
      "delhi": 2947,
      "those": 2948,
      "puri": 2949,
      "ear": 2950,
      "fit": 2951,
      "hard": 2952,
      "dekhne": 2953,
      "tumhara": 2954,
      "gali": 2955,
      "papa": 2956,
      "fight": 2957,
      "Aise": 2958,
      "scene": 2959,
      "via": 2960,
      "hamesha": 2961,
      "already": 2962,
      "waqt": 2963,
      "rect": 2964,
      "insaan": 2965,
      "tory": 2966,
      "fal": 2967,
      "something": 2968,
      "national": 2969,
      "ae": 2970,
      "waha": 2971,
      "deser": 2972,
      "Koi": 2973,
      "rakha": 2974,
      "ST": 2975,
      "theek": 2976,
      "both": 2977,
      "target": 2978,
      "batao": 2979,
      "dho": 2980,
      "cond": 2981,
      "chutiya": 2982,
      "thro": 2983,
      "into": 2984,
      "unka": 2985,
      "thodi": 2986,
      "ror": 2987,
      "daal": 2988,
      "mene": 2989,
      "vers": 2990,
      "25": 2991,
      "bade": 2992,
      "film": 2993,
      "gy": 2994,
      "followers": 2995,
      "kahan": 2996,
      "ching": 2997,
      "pul": 2998,
      "dd": 2999,
      "yu": 3000,
      "dr": 3001,
      "dou": 3002,
      "religi": 3003,
      "bor": 3004,
      "kil": 3005,
      "aan": 3006,
      "bhul": 3007,
      "neg": 3008,
      "captain": 3009,
      "tv": 3010,
      "bna": 3011,
      "abe": 3012,
      "lan": 3013,
      "karwa": 3014,
      "Or": 3015,
      "aisi": 3016,
      "var": 3017,
      "sible": 3018,
      "shayad": 3019,
      "money": 3020,
      "pure": 3021,
      "wood": 3022,
      "Temp": 3023,
      "card": 3024,
      "24": 3025,
      "lenge": 3026,
      "land": 3027,
      "AL": 3028,
      "lene": 3029,
      "????": 3030,
      "milta": 3031,
      "nik": 3032,
      "ital": 3033,
      "Agar": 3034,
      "dimag": 3035,
      "without": 3036,
      "gad": 3037,
      "em": 3038,
      "atta": 3039,
      "chup": 3040,
      "Apne": 3041,
      "samne": 3042,
      "AT": 3043,
      "hli": 3044,
      "sana": 3045,
      "jitna": 3046,
      "pagal": 3047,
      "por": 3048,
      "ream": 3049,
      "ward": 3050,
      "non": 3051,
      "times": 3052,
      "joy": 3053,
      "sou": 3054,
      "member": 3055,
      "air": 3056,
      "bolta": 3057,
      "aapki": 3058,
      "complete": 3059,
      "ida": 3060,
      "feeling": 3061,
      "chahe": 3062,
      "JP": 3063,
      "word": 3064,
      "apa": 3065,
      "dir": 3066,
      "jaate": 3067,
      "ever": 3068,
      "kyuki": 3069,
      "igno": 3070,
      "kah": 3071,
      "own": 3072,
      "called": 3073,
      "Phir": 3074,
      "things": 3075,
      "road": 3076,
      "ities": 3077,
      "offi": 3078,
      "cute": 3079,
      "bharat": 3080,
      "bai": 3081,
      "cept": 3082,
      "This": 3083,
      "ors": 3084,
      "kut": 3085,
      "put": 3086,
      "ments": 3087,
      "beli": 3088,
      "bn": 3089,
      "bara": 3090,
      "spa": 3091,
      "mad": 3092,
      "jane": 3093,
      "HE": 3094,
      "Di": 3095,
      "suna": 3096,
      "BJP": 3097,
      "med": 3098,
      "house": 3099,
      "resu": 3100,
      "kidar": 3101,
      "def": 3102,
      "tw": 3103,
      "200": 3104,
      "urs": 3105,
      "lop": 3106,
      "bhut": 3107,
      "🔥🔥": 3108,
      "bon": 3109,
      "rit": 3110,
      "Jab": 3111,
      "ris": 3112,
      "padta": 3113,
      "baare": 3114,
      "cry": 3115,
      "ee": 3116,
      "Than": 3117,
      "😭😭😭": 3118,
      "%,": 3119,
      "vacc": 3120,
      "kyo": 3121,
      "maj": 3122,
      "khushi": 3123,
      "bul": 3124,
      "dekhe": 3125,
      "samaj": 3126,
      "fat": 3127,
      "chod": 3128,
      "kitni": 3129,
      "join": 3130,
      "dan": 3131,
      "human": 3132,
      "mujh": 3133,
      "......": 3134,
      "lia": 3135,
      "Bo": 3136,
      "Cha": 3137,
      "ven": 3138,
      "aik": 3139,
      "dear": 3140,
      "imran": 3141,
      "open": 3142,
      "kaa": 3143,
      "actually": 3144,
      "doctor": 3145,
      "ped": 3146,
      "shadi": 3147,
      "usi": 3148,
      "alth": 3149,
      "deti": 3150,
      "kri": 3151,
      "Un": 3152,
      "aayega": 3153,
      "PM": 3154,
      "Mai": 3155,
      "inka": 3156,
      "warna": 3157,
      ";&": 3158,
      "ici": 3159,
      "head": 3160,
      "chalega": 3161,
      "ness": 3162,
      "press": 3163,
      "Par": 3164,
      "lling": 3165,
      "two": 3166,
      "ona": 3167,
      "🤣🤣🤣": 3168,
      "place": 3169,
      "etc": 3170,
      "coz": 3171,
      "online": 3172,
      "ini": 3173,
      "acti": 3174,
      "sc": 3175,
      "didn": 3176,
      "nishant": 3177,
      "ignore": 3178,
      "skta": 3179,
      "says": 3180,
      "wp": 3181,
      "haar": 3182,
      "aayi": 3183,
      "apke": 3184,
      "spon": 3185,
      "ori": 3186,
      "home": 3187,
      "swe": 3188,
      ":)": 3189,
      "able": 3190,
      "rate": 3191,
      "fair": 3192,
      "humare": 3193,
      "padega": 3194,
      "anti": 3195,
      "IT": 3196,
      "hus": 3197,
      "Salman": 3198,
      "bhej": 3199,
      "jud": 3200,
      "chaiye": 3201,
      "vil": 3202,
      "ject": 3203,
      "40": 3204,
      "andar": 3205,
      "celebr": 3206,
      "bah": 3207,
      "old": 3208,
      "impor": 3209,
      "dhan": 3210,
      "shit": 3211,
      "army": 3212,
      "lish": 3213,
      "van": 3214,
      "chho": 3215,
      "sahab": 3216,
      "lagi": 3217,
      "bhaiya": 3218,
      "fer": 3219,
      "believe": 3220,
      "HO": 3221,
      "inki": 3222,
      "modiji": 3223,
      "dekhte": 3224,
      "lgta": 3225,
      "lion": 3226,
      "wed": 3227,
      "while": 3228,
      "getting": 3229,
      "bane": 3230,
      "audi": 3231,
      "iz": 3232,
      "®®®®": 3233,
      "ins": 3234,
      "baaki": 3235,
      "gen": 3236,
      "yal": 3237,
      "rash": 3238,
      "ast": 3239,
      "mana": 3240,
      "fact": 3241,
      "tle": 3242,
      "badal": 3243,
      "relation": 3244,
      "dad": 3245,
      "mahi": 3246,
      "ball": 3247,
      "rakhi": 3248,
      "must": 3249,
      "vice": 3250,
      "importan": 3251,
      "roz": 3252,
      "aapka": 3253,
      "rehta": 3254,
      "--": 3255,
      "sense": 3256,
      "tic": 3257,
      "lywood": 3258,
      "nothing": 3259,
      "cup": 3260,
      "net": 3261,
      "port": 3262,
      "achha": 3263,
      "ling": 3264,
      "vate": 3265,
      "yda": 3266,
      "stay": 3267,
      "doesn": 3268,
      "ton": 3269,
      "ii": 3270,
      "leta": 3271,
      "gur": 3272,
      "mul": 3273,
      "yehi": 3274,
      "aw": 3275,
      "jaane": 3276,
      "group": 3277,
      "bit": 3278,
      "sabhi": 3279,
      "matter": 3280,
      "minister": 3281,
      "isme": 3282,
      "everything": 3283,
      "khana": 3284,
      "viewers": 3285,
      "chalo": 3286,
      "2022": 3287,
      "words": 3288,
      "70": 3289,
      "samjha": 3290,
      "Ac": 3291,
      "qual": 3292,
      "few": 3293,
      "jayenge": 3294,
      "art": 3295,
      "samay": 3296,
      "lga": 3297,
      "intere": 3298,
      "tent": 3299,
      "chalta": 3300,
      "andom": 3301,
      "coming": 3302,
      "wah": 3303,
      "cou": 3304,
      "aree": 3305,
      "hero": 3306,
      "thers": 3307,
      "jae": 3308,
      "banda": 3309,
      "safed": 3310,
      "rence": 3311,
      "yon": 3312,
      "nat": 3313,
      "21": 3314,
      "Ke": 3315,
      "sage": 3316,
      "sher": 3317,
      "aro": 3318,
      "hei": 3319,
      "gyan": 3320,
      "single": 3321,
      "tention": 3322,
      "paper": 3323,
      "haal": 3324,
      "Ro": 3325,
      "bahot": 3326,
      "social": 3327,
      "uc": 3328,
      "krti": 3329,
      "yam": 3330,
      "pati": 3331,
      "insan": 3332,
      "kind": 3333,
      "ches": 3334,
      "madam": 3335,
      "tax": 3336,
      "enjoy": 3337,
      "baate": 3338,
      "apki": 3339,
      "tin": 3340,
      "ht": 3341,
      "saab": 3342,
      "cas": 3343,
      "super": 3344,
      "room": 3345,
      "ik": 3346,
      "hath": 3347,
      "jayegi": 3348,
      "sent": 3349,
      "yeah": 3350,
      "since": 3351,
      "kt": 3352,
      "tabhi": 3353,
      "future": 3354,
      "tors": 3355,
      "pet": 3356,
      "space": 3357,
      "bow": 3358,
      "kyunki": 3359,
      "pose": 3360,
      "istan": 3361,
      "anything": 3362,
      "ese": 3363,
      "kohli": 3364,
      "nazar": 3365,
      "final": 3366,
      "makers": 3367,
      "diwali": 3368,
      "mtlb": 3369,
      "jaata": 3370,
      "una": 3371,
      "22": 3372,
      "solu": 3373,
      "respon": 3374,
      "taraf": 3375,
      "Hindu": 3376,
      "noti": 3377,
      "gram": 3378,
      "comments": 3379,
      "player": 3380,
      "hair": 3381,
      "sr": 3382,
      "type": 3383,
      "gus": 3384,
      "chance": 3385,
      "jour": 3386,
      "If": 3387,
      "ndra": 3388,
      "mn": 3389,
      "medi": 3390,
      "usme": 3391,
      "actly": 3392,
      "contest": 3393,
      "gener": 3394,
      "laya": 3395,
      "seen": 3396,
      "issue": 3397,
      "dukh": 3398,
      "thought": 3399,
      "nation": 3400,
      "nam": 3401,
      "tumne": 3402,
      "muje": 3403,
      "bhagwan": 3404,
      "Do": 3405,
      "religion": 3406,
      "SP": 3407,
      "agree": 3408,
      "cli": 3409,
      "SA": 3410,
      "hing": 3411,
      "didi": 3412,
      "auti": 3413,
      "skte": 3414,
      "ME": 3415,
      "liter": 3416,
      "gs": 3417,
      "mand": 3418,
      "dol": 3419,
      "banaya": 3420,
      "cel": 3421,
      "kyon": 3422,
      "rish": 3423,
      "RE": 3424,
      "Le": 3425,
      "jawab": 3426,
      "idhar": 3427,
      "karni": 3428,
      "vs": 3429,
      "proud": 3430,
      "shaadi": 3431,
      "baby": 3432,
      "baba": 3433,
      "shah": 3434,
      "rahul": 3435,
      "inte": 3436,
      "NA": 3437,
      "singh": 3438,
      "Ji": 3439,
      "tions": 3440,
      "order": 3441,
      "chahte": 3442,
      "!!!!": 3443,
      "sharam": 3444,
      "fac": 3445,
      ":-": 3446,
      "alo": 3447,
      "Allah": 3448,
      "players": 3449,
      "health": 3450,
      "ying": 3451,
      "vation": 3452,
      "cked": 3453,
      "rahega": 3454,
      "ssion": 3455,
      "door": 3456,
      "favour": 3457,
      "Umar": 3458,
      "ace": 3459,
      "release": 3460,
      "Kabhi": 3461,
      "99": 3462,
      "mood": 3463,
      "insta": 3464,
      "autiful": 3465,
      "tb": 3466,
      "sive": 3467,
      "ority": 3468,
      "mast": 3469,
      "Teja": 3470,
      "Kal": 3471,
      "came": 3472,
      "krke": 3473,
      "cong": 3474,
      "joke": 3475,
      "chak": 3476,
      "seriously": 3477,
      "ren": 3478,
      "though": 3479,
      "turn": 3480,
      "guy": 3481,
      "tube": 3482,
      "recor": 3483,
      "Pr": 3484,
      "esa": 3485,
      "ries": 3486,
      "talk": 3487,
      "phe": 3488,
      "dit": 3489,
      "jail": 3490,
      "whole": 3491,
      "sai": 3492,
      "jaati": 3493,
      "spo": 3494,
      "sara": 3495,
      "mau": 3496,
      "scre": 3497,
      "hamara": 3498,
      "gle": 3499,
      "What": 3500,
      "dard": 3501,
      "zaroor": 3502,
      "itive": 3503,
      "gon": 3504,
      "SE": 3505,
      "mic": 3506,
      "fix": 3507,
      "pade": 3508,
      "soon": 3509,
      "justice": 3510,
      "expect": 3511,
      "rehte": 3512,
      "ask": 3513,
      "bank": 3514,
      "once": 3515,
      "dharm": 3516,
      "aana": 3517,
      "lega": 3518,
      "ila": 3519,
      "judge": 3520,
      "Ar": 3521,
      "gaali": 3522,
      "virat": 3523,
      "parti": 3524,
      "sys": 3525,
      "hes": 3526,
      "trust": 3527,
      "neta": 3528,
      "chaar": 3529,
      "office": 3530,
      "series": 3531,
      "charac": 3532,
      "women": 3533,
      "beautiful": 3534,
      "hahaha": 3535,
      "aun": 3536,
      "cks": 3537,
      "rup": 3538,
      "ater": 3539,
      "move": 3540,
      "ING": 3541,
      "left": 3542,
      "Mera": 3543,
      "honi": 3544,
      "apka": 3545,
      "😡😡": 3546,
      "dian": 3547,
      "Ex": 3548,
      "UP": 3549,
      "eas": 3550,
      "mahara": 3551,
      "teju": 3552,
      "stru": 3553,
      "anyone": 3554,
      "die": 3555,
      "haa": 3556,
      "mph": 3557,
      "tumko": 3558,
      "mang": 3559,
      "produ": 3560,
      "🇮🇳": 3561,
      "ron": 3562,
      "history": 3563,
      "jho": 3564,
      "rd": 3565,
      "position": 3566,
      "nay": 3567,
      "Har": 3568,
      "load": 3569,
      "remember": 3570,
      "cts": 3571,
      "court": 3572,
      "piche": 3573,
      "meet": 3574,
      "idol": 3575,
      "hamari": 3576,
      "fail": 3577,
      "vol": 3578,
      "ghts": 3579,
      "kad": 3580,
      "AA": 3581,
      "naya": 3582,
      "important": 3583,
      "students": 3584,
      "drama": 3585,
      "kese": 3586,
      "yat": 3587,
      "mur": 3588,
      "jese": 3589,
      "baro": 3590,
      "lekar": 3591,
      "find": 3592,
      "aam": 3593,
      "cm": 3594,
      "making": 3595,
      "different": 3596,
      "suc": 3597,
      "Dil": 3598,
      "audience": 3599,
      "para": 3600,
      "iski": 3601,
      "oc": 3602,
      "90": 3603,
      "chill": 3604,
      "troll": 3605,
      "yogi": 3606,
      "kai": 3607,
      "through": 3608,
      "bate": 3609,
      "inve": 3610,
      "They": 3611,
      "market": 3612,
      "logic": 3613,
      "mission": 3614,
      "away": 3615,
      "sabke": 3616,
      "special": 3617,
      "inse": 3618,
      "tumse": 3619,
      "gandhi": 3620,
      "cking": 3621,
      "🤣🤣🤣🤣": 3622,
      "leader": 3623,
      "chahta": 3624,
      "Haan": 3625,
      "college": 3626,
      "wapas": 3627,
      "terror": 3628,
      "cour": 3629,
      "ayega": 3630,
      "bed": 3631,
      "jarurat": 3632,
      "aadmi": 3633,
      "business": 3634,
      "aab": 3635,
      "An": 3636,
      "using": 3637,
      "sikh": 3638,
      "baje": 3639,
      "tension": 3640,
      "dev": 3641,
      "sol": 3642,
      "hindi": 3643,
      "tional": 3644,
      "aao": 3645,
      "nice": 3646,
      "plain": 3647,
      "talking": 3648,
      "fara": 3649,
      "result": 3650,
      "hurt": 3651,
      "kbhi": 3652,
      "Abe": 3653,
      "LA": 3654,
      "hor": 3655,
      "kehte": 3656,
      "1st": 3657,
      "lear": 3658,
      "sake": 3659,
      "kahe": 3660,
      "phle": 3661,
      "petrol": 3662,
      "Wind": 3663,
      "dijiye": 3664,
      "sap": 3665,
      "copy": 3666,
      "bri": 3667,
      "okay": 3668,
      "trans": 3669,
      "waz": 3670,
      "congrat": 3671,
      "KA": 3672,
      "Imran": 3673,
      "laude": 3674,
      "stu": 3675,
      "mance": 3676,
      "socha": 3677,
      "maza": 3678,
      "chuka": 3679,
      "mehn": 3680,
      "system": 3681,
      "Yes": 3682,
      "cl": 3683,
      "dek": 3684,
      "company": 3685,
      "focus": 3686,
      "pari": 3687,
      "OU": 3688,
      "smjh": 3689,
      "23": 3690,
      "another": 3691,
      "karoge": 3692,
      "29": 3693,
      "ists": 3694,
      "rage": 3695,
      "ats": 3696,
      "kaat": 3697,
      "possible": 3698,
      "Main": 3699,
      "ney": 3700,
      "isiliye": 3701,
      "😍😍": 3702,
      "educ": 3703,
      "saaf": 3704,
      "Rain": 3705,
      "Dewp": 3706,
      "mandir": 3707,
      "bache": 3708,
      "panch": 3709,
      "mili": 3710,
      "mr": 3711,
      "lead": 3712,
      "others": 3713,
      "train": 3714,
      "means": 3715,
      "table": 3716,
      "parents": 3717,
      "enter": 3718,
      "loo": 3719,
      "Tere": 3720,
      "Don": 3721,
      "Karan": 3722,
      "marri": 3723,
      "bur": 3724,
      "dro": 3725,
      "hari": 3726,
      "tit": 3727,
      "dom": 3728,
      "DI": 3729,
      "experi": 3730,
      "picture": 3731,
      "subah": 3732,
      "request": 3733,
      "haram": 3734,
      "message": 3735,
      "As": 3736,
      "26": 3737,
      "80": 3738,
      "huye": 3739,
      "bang": 3740,
      "update": 3741,
      "jaana": 3742,
      "poll": 3743,
      "cant": 3744,
      "politics": 3745,
      "send": 3746,
      "btw": 3747,
      "mental": 3748,
      "dri": 3749,
      "sco": 3750,
      "bakwas": 3751,
      "bhu": 3752,
      "winner": 3753,
      "Twitter": 3754,
      "minu": 3755,
      "arch": 3756,
      "sty": 3757,
      "ski": 3758,
      "gussa": 3759,
      "bin": 3760,
      "rehna": 3761,
      "dp": 3762,
      "sw": 3763,
      "devo": 3764,
      "hours": 3765,
      "ctive": 3766,
      "atleast": 3767,
      "delete": 3768,
      "karu": 3769,
      "los": 3770,
      "key": 3771,
      "ight": 3772,
      "ings": 3773,
      "gay": 3774,
      "negative": 3775,
      "playing": 3776,
      "lies": 3777,
      "deve": 3778,
      "fect": 3779,
      "Cong": 3780,
      "interest": 3781,
      "hisab": 3782,
      "suppor": 3783,
      "commun": 3784,
      "second": 3785,
      "mani": 3786,
      "hed": 3787,
      "happe": 3788,
      "yaa": 3789,
      "ith": 3790,
      "literally": 3791,
      "IS": 3792,
      "shri": 3793,
      "prove": 3794,
      "sikha": 3795,
      "My": 3796,
      "ground": 3797,
      "bhool": 3798,
      "opin": 3799,
      "control": 3800,
      "Co": 3801,
      "yah": 3802,
      "tt": 3803,
      "preci": 3804,
      "trying": 3805,
      "sushant": 3806,
      "sale": 3807,
      "kahin": 3808,
      "ssr": 3809,
      "arey": 3810,
      "tl": 3811,
      "faltu": 3812,
      "dance": 3813,
      "screen": 3814,
      "Si": 3815,
      "youtube": 3816,
      "ass": 3817,
      "mummy": 3818,
      "LO": 3819,
      "row": 3820,
      "perfor": 3821,
      "vity": 3822,
      "cast": 3823,
      "jaha": 3824,
      "normal": 3825,
      "pakistani": 3826,
      "success": 3827,
      "😂🤣": 3828,
      "dai": 3829,
      "ough": 3830,
      "🙏🏻": 3831,
      "bani": 3832,
      "ekh": 3833,
      "ppl": 3834,
      "black": 3835,
      "ates": 3836,
      "fra": 3837,
      "report": 3838,
      "tage": 3839,
      "ision": 3840,
      "kafi": 3841,
      "dream": 3842,
      "death": 3843,
      "Good": 3844,
      "city": 3845,
      "bill": 3846,
      "cular": 3847,
      "phr": 3848,
      "pend": 3849,
      "aas": 3850,
      "oge": 3851,
      "till": 3852,
      "music": 3853,
      "opinion": 3854,
      "idea": 3855,
      "bollywood": 3856,
      "bhot": 3857,
      "haath": 3858,
      "mom": 3859,
      "contin": 3860,
      "lost": 3861,
      "busy": 3862,
      "kijiye": 3863,
      "badh": 3864,
      "28": 3865,
      "baith": 3866,
      "Mus": 3867,
      "500": 3868,
      "relationship": 3869,
      "anno": 3870,
      "She": 3871,
      "ustr": 3872,
      "gust": 3873,
      "toge": 3874,
      "around": 3875,
      "😁😁": 3876,
      "bless": 3877,
      "Gaya": 3878,
      "popul": 3879,
      "Thank": 3880,
      "save": 3881,
      "corona": 3882,
      "watching": 3883,
      "Today": 3884,
      "MA": 3885,
      "yun": 3886,
      "character": 3887,
      "anu": 3888,
      "rona": 3889,
      "lagti": 3890,
      "magar": 3891,
      "situ": 3892,
      "tod": 3893,
      "trp": 3894,
      "bile": 3895,
      "wohi": 3896,
      "logy": 3897,
      "inhe": 3898,
      "Kiya": 3899,
      "chin": 3900,
      "banane": 3901,
      "cut": 3902,
      "ched": 3903,
      "fli": 3904,
      "ced": 3905,
      "humne": 3906,
      "ume": 3907,
      "mb": 3908,
      "Ja": 3909,
      "sis": 3910,
      "bohat": 3911,
      "laal": 3912,
      "LE": 3913,
      "told": 3914,
      "ulations": 3915,
      "become": 3916,
      "rang": 3917,
      "sari": 3918,
      "vies": 3919,
      "thinking": 3920,
      "hosp": 3921,
      "zat": 3922,
      "aunty": 3923,
      "33": 3924,
      "La": 3925,
      "lims": 3926,
      "fandom": 3927,
      "acting": 3928,
      "arendra": 3929,
      "ory": 3930,
      "close": 3931,
      "hogaya": 3932,
      "each": 3933,
      "tech": 3934,
      "enough": 3935,
      "together": 3936,
      "rakho": 3937,
      "60": 3938,
      "wahan": 3939,
      "china": 3940,
      "istmas": 3941,
      "ging": 3942,
      "sle": 3943,
      "une": 3944,
      "dima": 3945,
      "roj": 3946,
      "poor": 3947,
      "mud": 3948,
      "lakh": 3949,
      "ano": 3950,
      "child": 3951,
      "OR": 3952,
      "mara": 3953,
      "27": 3954,
      "decision": 3955,
      "asli": 3956,
      "ledge": 3957,
      "bech": 3958,
      "sala": 3959,
      "nah": 3960,
      "gift": 3961,
      "plus": 3962,
      "attention": 3963,
      "kaafi": 3964,
      "bb15": 3965,
      "data": 3966,
      "bers": 3967,
      "dunga": 3968,
      "ganda": 3969,
      "peace": 3970,
      "months": 3971,
      "Maine": 3972,
      "Pro": 3973,
      "answer": 3974,
      "price": 3975,
      "🥺🥺": 3976,
      "speak": 3977,
      "tty": 3978,
      "pich": 3979,
      "proper": 3980,
      "soci": 3981,
      "kl": 3982,
      "kaar": 3983,
      "gari": 3984,
      "ump": 3985,
      "yed": 3986,
      "Oh": 3987,
      "movies": 3988,
      "moti": 3989,
      "symp": 3990,
      "girls": 3991,
      "lay": 3992,
      "paida": 3993,
      "reality": 3994,
      "aah": 3995,
      "project": 3996,
      "thy": 3997,
      "cember": 3998,
      "SS": 3999,
      "favourite": 4000,
      "wards": 4001,
      "else": 4002,
      "nau": 4003,
      "halat": 4004,
      "lection": 4005,
      "zam": 4006,
      "invest": 4007,
      "emp": 4008,
      "inde": 4009,
      "ety": 4010,
      "eh": 4011,
      "max": 4012,
      "trophy": 4013,
      "pain": 4014,
      "mare": 4015,
      "dio": 4016,
      "sign": 4017,
      "Mat": 4018,
      "khane": 4019,
      "waiting": 4020,
      "spir": 4021,
      "bra": 4022,
      "mehnat": 4023,
      "35": 4024,
      "daily": 4025,
      "meh": 4026,
      "UM": 4027,
      "present": 4028,
      "exactly": 4029,
      "poin": 4030,
      "athy": 4031,
      "actor": 4032,
      "RA": 4033,
      "hyan": 4034,
      "conne": 4035,
      "thats": 4036,
      "experience": 4037,
      "Just": 4038,
      "amaz": 4039,
      "due": 4040,
      "link": 4041,
      "YA": 4042,
      "looking": 4043,
      "kaisa": 4044,
      "bolti": 4045,
      "rakhna": 4046,
      "deserve": 4047,
      "shish": 4048,
      "nak": 4049,
      "Itna": 4050,
      "defend": 4051,
      "dusro": 4052,
      "rohit": 4053,
      "waale": 4054,
      "fully": 4055,
      "dekhi": 4056,
      "tire": 4057,
      "Chi": 4058,
      "That": 4059,
      "giving": 4060,
      "charge": 4061,
      "shows": 4062,
      "Pratik": 4063,
      "bye": 4064,
      "rakhe": 4065,
      "manage": 4066,
      "vid": 4067,
      "knowledge": 4068,
      "fund": 4069,
      "meen": 4070,
      "gn": 4071,
      "aryan": 4072,
      "Man": 4073,
      "Khu": 4074,
      "naf": 4075,
      "DE": 4076,
      "chali": 4077,
      "KAR": 4078,
      "fark": 4079,
      "content": 4080,
      "chhod": 4081,
      "conf": 4082,
      "gonna": 4083,
      "ls": 4084,
      "TA": 4085,
      "jada": 4086,
      "Fir": 4087,
      "knows": 4088,
      "ope": 4089,
      "gun": 4090,
      "aake": 4091,
      "positive": 4092,
      "asi": 4093,
      "lock": 4094,
      "2nd": 4095,
      "Hi": 4096,
      "KE": 4097,
      "saala": 4098,
      "bring": 4099,
      "saw": 4100,
      "inst": 4101,
      "acher": 4102,
      "edit": 4103,
      "cat": 4104,
      "khilaf": 4105,
      "nafrat": 4106,
      "dist": 4107,
      "yhi": 4108,
      "chat": 4109,
      "Lek": 4110,
      "attack": 4111,
      "having": 4112,
      "jisko": 4113,
      "dhyan": 4114,
      "luck": 4115,
      "started": 4116,
      "Hain": 4117,
      "kid": 4118,
      "chakkar": 4119,
      "1000": 4120,
      "fall": 4121,
      "sawal": 4122,
      "prote": 4123,
      "lagte": 4124,
      "Lekin": 4125,
      "mann": 4126,
      "wis": 4127,
      "situation": 4128,
      "million": 4129,
      "option": 4130,
      "baithe": 4131,
      "voice": 4132,
      "happen": 4133,
      "pping": 4134,
      "search": 4135,
      "bass": 4136,
      "course": 4137,
      "tend": 4138,
      "mush": 4139,
      "neela": 4140,
      "leti": 4141,
      "gul": 4142,
      "incre": 4143,
      "ming": 4144,
      "ww": 4145,
      "guess": 4146,
      "?!": 4147,
      "stre": 4148,
      "wife": 4149,
      "CP": 4150,
      "taking": 4151,
      "mage": 4152,
      "wel": 4153,
      "private": 4154,
      "New": 4155,
      "dosti": 4156,
      "ign": 4157,
      "kla": 4158,
      "abar": 4159,
      "chandi": 4160,
      "muj": 4161,
      "beti": 4162,
      "ug": 4163,
      "Ni": 4164,
      "proof": 4165,
      "nar": 4166,
      "jake": 4167,
      "profe": 4168,
      "buil": 4169,
      "during": 4170,
      "islam": 4171,
      "alik": 4172,
      "smile": 4173,
      "vious": 4174,
      "Bas": 4175,
      "brother": 4176,
      "leave": 4177,
      "buy": 4178,
      "vip": 4179,
      "sci": 4180,
      "mers": 4181,
      "mee": 4182,
      "guage": 4183,
      "cially": 4184,
      "offici": 4185,
      "beh": 4186,
      "hata": 4187,
      "ose": 4188,
      "punjab": 4189,
      "bud": 4190,
      "afghan": 4191,
      "songs": 4192,
      "ont": 4193,
      "On": 4194,
      "Mar": 4195,
      "gin": 4196,
      "mujhse": 4197,
      "moment": 4198,
      "eyes": 4199,
      "hme": 4200,
      "vaccine": 4201,
      "paid": 4202,
      "God": 4203,
      "peeche": 4204,
      "rr": 4205,
      "political": 4206,
      "ayi": 4207,
      "defin": 4208,
      "bhakt": 4209,
      "Why": 4210,
      "mc": 4211,
      "blame": 4212,
      "cancel": 4213,
      "wri": 4214,
      "yer": 4215,
      "yega": 4216,
      "compare": 4217,
      "BB": 4218,
      "crush": 4219,
      "VI": 4220,
      "wic": 4221,
      "discus": 4222,
      "funny": 4223,
      "banana": 4224,
      "cono": 4225,
      "waste": 4226,
      "jeeb": 4227,
      "Mein": 4228,
      "language": 4229,
      "maja": 4230,
      "mobile": 4231,
      "active": 4232,
      "hra": 4233,
      "Please": 4234,
      "record": 4235,
      "sic": 4236,
      "lls": 4237,
      "credit": 4238,
      "Toh": 4239,
      "stri": 4240,
      "tween": 4241,
      "loss": 4242,
      "stead": 4243,
      "teacher": 4244,
      "fast": 4245,
      "between": 4246,
      "confi": 4247,
      "mise": 4248,
      "develop": 4249,
      "Bha": 4250,
      "rak": 4251,
      "dikhta": 4252,
      "looks": 4253,
      "Su": 4254,
      "koshish": 4255,
      "TO": 4256,
      "hospital": 4257,
      "views": 4258,
      "tour": 4259,
      "bab": 4260,
      "dence": 4261,
      "visit": 4262,
      "maharaj": 4263,
      "accept": 4264,
      "sex": 4265,
      "cb": 4266,
      "ral": 4267,
      "cen": 4268,
      "becha": 4269,
      "zara": 4270,
      "gets": 4271,
      "needs": 4272,
      "jitne": 4273,
      "Yaar": 4274,
      "jit": 4275,
      "😅😅": 4276,
      "kehna": 4277,
      "hil": 4278,
      "jid": 4279,
      "maybe": 4280,
      "pani": 4281,
      "ury": 4282,
      "Indian": 4283,
      "Happ": 4284,
      "camera": 4285,
      "might": 4286,
      "fayda": 4287,
      "khol": 4288,
      "haq": 4289,
      "yha": 4290,
      "hold": 4291,
      "jahan": 4292,
      "kti": 4293,
      "anch": 4294,
      "mushkil": 4295,
      "47": 4296,
      "bharo": 4297,
      "speed": 4298,
      "inn": 4299,
      "unt": 4300,
      "rh": 4301,
      "utna": 4302,
      "site": 4303,
      "gf": 4304,
      "ghum": 4305,
      "ult": 4306,
      "imag": 4307,
      "service": 4308,
      "sona": 4309,
      "walon": 4310,
      "45": 4311,
      "bheja": 4312,
      "arti": 4313,
      "baatein": 4314,
      "ghr": 4315,
      "izzat": 4316,
      "rashmi": 4317,
      "english": 4318,
      "kap": 4319,
      "Uske": 4320,
      "brain": 4321,
      "wow": 4322,
      "RI": 4323,
      "udy": 4324,
      "appreci": 4325,
      "wise": 4326,
      "karegi": 4327,
      "cover": 4328,
      "sympathy": 4329,
      "mention": 4330,
      "ssed": 4331,
      "direct": 4332,
      "cky": 4333,
      "abi": 4334,
      "handle": 4335,
      "sey": 4336,
      "colors": 4337,
      "lagega": 4338,
      "karlo": 4339,
      "curity": 4340,
      "crore": 4341,
      "anda": 4342,
      "fort": 4343,
      "tee": 4344,
      "food": 4345,
      "Kaise": 4346,
      "dru": 4347,
      "Kisi": 4348,
      "ipl": 4349,
      "drop": 4350,
      "bot": 4351,
      "pate": 4352,
      "dua": 4353,
      "raja": 4354,
      "sambha": 4355,
      "khari": 4356,
      "shay": 4357,
      "prime": 4358,
      "dire": 4359,
      "sla": 4360,
      "Happy": 4361,
      "himmat": 4362,
      "performance": 4363,
      "dee": 4364,
      "leaders": 4365,
      "uncle": 4366,
      "rna": 4367,
      "boli": 4368,
      "jisne": 4369,
      "msg": 4370,
      "DSP": 4371,
      "vish": 4372,
      "😘😘": 4373,
      "sweet": 4374,
      "ased": 4375,
      "board": 4376,
      "alawa": 4377,
      "pin": 4378,
      "Po": 4379,
      "ami": 4380,
      "bond": 4381,
      "vin": 4382,
      "isne": 4383,
      "HAI": 4384,
      "cing": 4385,
      "pappu": 4386,
      "double": 4387,
      "forever": 4388,
      "mate": 4389,
      "bula": 4390,
      "reser": 4391,
      "aag": 4392,
      "makes": 4393,
      "sidhar": 4394,
      "file": 4395,
      "cum": 4396,
      "journal": 4397,
      "unhone": 4398,
      "milti": 4399,
      "asked": 4400,
      "KK": 4401,
      "working": 4402,
      "EN": 4403,
      "ticket": 4404,
      "habbat": 4405,
      "tujh": 4406,
      "humara": 4407,
      "bande": 4408,
      "Sh": 4409,
      "chl": 4410,
      "scri": 4411,
      "yet": 4412,
      "vac": 4413,
      "hearts": 4414,
      "sleep": 4415,
      ":(": 4416,
      "hats": 4417,
      "Meri": 4418,
      "chuke": 4419,
      "honest": 4420,
      "abb": 4421,
      "tom": 4422,
      "hello": 4423,
      "little": 4424,
      "sidharth": 4425,
      "fie": 4426,
      "........": 4427,
      "simple": 4428,
      "couple": 4429,
      "farak": 4430,
      "ils": 4431,
      "student": 4432,
      "hoge": 4433,
      "kisne": 4434,
      "wants": 4435,
      "versity": 4436,
      "perfect": 4437,
      "Con": 4438,
      "econo": 4439,
      "neend": 4440,
      "alous": 4441,
      "yenge": 4442,
      "gurus": 4443,
      "LI": 4444,
      "ature": 4445,
      "ako": 4446,
      "khar": 4447,
      "finally": 4448,
      "rap": 4449,
      "jhoo": 4450,
      "queen": 4451,
      "cture": 4452,
      "kashmir": 4453,
      "grand": 4454,
      "TI": 4455,
      "dos": 4456,
      "half": 4457,
      "vaccin": 4458,
      "quality": 4459,
      "dhu": 4460,
      "protest": 4461,
      "Wale": 4462,
      "rehti": 4463,
      "deep": 4464,
      "decide": 4465,
      "til": 4466,
      "almost": 4467,
      "Chr": 4468,
      "feed": 4469,
      "idar": 4470,
      "tay": 4471,
      "Ham": 4472,
      "rok": 4473,
      "udhar": 4474,
      "went": 4475,
      "truth": 4476,
      "kur": 4477,
      "cool": 4478,
      "rehne": 4479,
      "sapp": 4480,
      "favor": 4481,
      "wonder": 4482,
      "father": 4483,
      "corrup": 4484,
      "humari": 4485,
      ").": 4486,
      "quo": 4487,
      "das": 4488,
      "difference": 4489,
      "jaisi": 4490,
      "retweet": 4491,
      "HAHA": 4492,
      "Bi": 4493,
      "lent": 4494,
      "shukla": 4495,
      "paanch": 4496,
      "aurat": 4497,
      "bigg": 4498,
      "treat": 4499,
      "voh": 4500,
      "jaake": 4501,
      "dey": 4502,
      "hana": 4503,
      "agen": 4504,
      "AS": 4505,
      "congratulations": 4506,
      "current": 4507,
      "dest": 4508,
      "kardo": 4509,
      "las": 4510,
      "mart": 4511,
      "crit": 4512,
      "seat": 4513,
      "amazing": 4514,
      "milna": 4515,
      "education": 4516,
      "west": 4517,
      "isy": 4518,
      "nya": 4519,
      "mahine": 4520,
      "fl": 4521,
      "ao": 4522,
      "announ": 4523,
      "pero": 4524,
      "topic": 4525,
      "Del": 4526,
      "isla": 4527,
      "listen": 4528,
      "rail": 4529,
      "dari": 4530,
      "srk": 4531,
      "admi": 4532,
      "rable": 4533,
      "hare": 4534,
      "HAN": 4535,
      "unse": 4536,
      "wc": 4537,
      "career": 4538,
      "😭😂": 4539,
      "TE": 4540,
      "vert": 4541,
      "milte": 4542,
      "xic": 4543,
      "past": 4544,
      "unch": 4545,
      "milne": 4546,
      "Vo": 4547,
      "doubt": 4548,
      "emotional": 4549,
      "fai": 4550,
      "poora": 4551,
      "range": 4552,
      "mem": 4553,
      "wanted": 4554,
      "demand": 4555,
      "pehli": 4556,
      "muslims": 4557,
      "spre": 4558,
      "maal": 4559,
      "khand": 4560,
      "kra": 4561,
      "tern": 4562,
      "comes": 4563,
      "Ti": 4564,
      "master": 4565,
      "lect": 4566,
      "NE": 4567,
      "pada": 4568,
      "aapse": 4569,
      "inform": 4570,
      "loves": 4571,
      "👏👏": 4572,
      "dimaag": 4573,
      "Woh": 4574,
      "boht": 4575,
      "jealous": 4576,
      "aukat": 4577,
      "ajeeb": 4578,
      "Congress": 4579,
      "ution": 4580,
      "worry": 4581,
      "cording": 4582,
      "grow": 4583,
      "stat": 4584,
      "writ": 4585,
      "fas": 4586,
      "bolega": 4587,
      "hindus": 4588,
      "bataya": 4589,
      "orts": 4590,
      "fine": 4591,
      "note": 4592,
      "paya": 4593,
      "darr": 4594,
      "Bro": 4595,
      "mazak": 4596,
      "easy": 4597,
      "degi": 4598,
      "socho": 4599,
      "akele": 4600,
      "uty": 4601,
      "likes": 4602,
      "mulk": 4603,
      "entertain": 4604,
      "took": 4605,
      "clu": 4606,
      "dies": 4607,
      "ank": 4608,
      "profit": 4609,
      "goo": 4610,
      "ither": 4611,
      "community": 4612,
      "maha": 4613,
      "box": 4614,
      "roar": 4615,
      "dosto": 4616,
      "fre": 4617,
      "lon": 4618,
      "practi": 4619,
      "ners": 4620,
      "videos": 4621,
      "jara": 4622,
      "Bhar": 4623,
      "ramp": 4624,
      "found": 4625,
      "slow": 4626,
      "yourself": 4627,
      "konsa": 4628,
      "peri": 4629,
      "role": 4630,
      "humko": 4631,
      "marne": 4632,
      "ison": 4633,
      "loved": 4634,
      "eke": 4635,
      "solute": 4636,
      "ph": 4637,
      "bacche": 4638,
      "Kyun": 4639,
      "NO": 4640,
      "jeete": 4641,
      "nalla": 4642,
      "guruji": 4643,
      "jri": 4644,
      "small": 4645,
      "huwa": 4646,
      "AM": 4647,
      "host": 4648,
      "padha": 4649,
      "Delhi": 4650,
      "karen": 4651,
      "ruk": 4652,
      "jiv": 4653,
      "Af": 4654,
      "PR": 4655,
      "cident": 4656,
      "spread": 4657,
      "saari": 4658,
      "andhi": 4659,
      "shyam": 4660,
      "return": 4661,
      "YE": 4662,
      "36": 4663,
      "teen": 4664,
      "2014": 4665,
      "rahenge": 4666,
      "tribu": 4667,
      "flop": 4668,
      "meko": 4669,
      "Inke": 4670,
      "mask": 4671,
      "nav": 4672,
      "🙄🙄": 4673,
      "nae": 4674,
      "deli": 4675,
      "secular": 4676,
      "ring": 4677,
      "VE": 4678,
      "soo": 4679,
      "fb": 4680,
      "kumar": 4681,
      "const": 4682,
      "fied": 4683,
      "Kam": 4684,
      "repe": 4685,
      "exci": 4686,
      "fd": 4687,
      "For": 4688,
      "front": 4689,
      "Tujhe": 4690,
      "maang": 4691,
      "deal": 4692,
      "era": 4693,
      "tai": 4694,
      "doos": 4695,
      "ather": 4696,
      "opp": 4697,
      "Pehle": 4698,
      "sang": 4699,
      "pto": 4700,
      "sant": 4701,
      "jante": 4702,
      "Jai": 4703,
      "cep": 4704,
      "male": 4705,
      "Yo": 4706,
      "rukh": 4707,
      "wapis": 4708,
      "award": 4709,
      "ones": 4710,
      "lli": 4711,
      "How": 4712,
      "jriwal": 4713,
      "famous": 4714,
      "ladke": 4715,
      "given": 4716,
      "sident": 4717,
      "),": 4718,
      "bday": 4719,
      "vale": 4720,
      "soul": 4721,
      "milegi": 4722,
      "😆😆": 4723,
      "sna": 4724,
      "hogya": 4725,
      "lence": 4726,
      "ussi": 4727,
      "feels": 4728,
      "wanna": 4729,
      "ars": 4730,
      "rule": 4731,
      "husband": 4732,
      "Not": 4733,
      "dul": 4734,
      "Tho": 4735,
      "session": 4736,
      "afghanistan": 4737,
      "common": 4738,
      "jat": 4739,
      "toxic": 4740,
      "short": 4741,
      "padi": 4742,
      "Kyu": 4743,
      "stic": 4744,
      "gent": 4745,
      "gyaan": 4746,
      "example": 4747,
      "UR": 4748,
      ",-": 4749,
      "div": 4750,
      "fire": 4751,
      "achieve": 4752,
      "correct": 4753,
      "shot": 4754,
      "chalu": 4755,
      "vaise": 4756,
      "Aisa": 4757,
      "55": 4758,
      "dino": 4759,
      "physi": 4760,
      "CE": 4761,
      "custo": 4762,
      "34": 4763,
      "bihar": 4764,
      "bete": 4765,
      "dekhiye": 4766,
      "happened": 4767,
      "hype": 4768,
      "ura": 4769,
      "kisan": 4770,
      "ie": 4771,
      "Accha": 4772,
      "karein": 4773,
      "Wa": 4774,
      "lla": 4775,
      "ladka": 4776,
      "Gu": 4777,
      "banaye": 4778,
      "ekend": 4779,
      "paa": 4780,
      "demo": 4781,
      "kas": 4782,
      "khali": 4783,
      "ants": 4784,
      "white": 4785,
      "dialo": 4786,
      "amo": 4787,
      "Nhi": 4788,
      "alia": 4789,
      "uk": 4790,
      "ken": 4791,
      "appe": 4792,
      "chiz": 4793,
      "dig": 4794,
      "dun": 4795,
      "stup": 4796,
      "bolenge": 4797,
      "tari": 4798,
      "humesha": 4799,
      "issues": 4800,
      "supre": 4801,
      "exams": 4802,
      "como": 4803,
      "morrow": 4804,
      "pressure": 4805,
      "wese": 4806,
      "pareshan": 4807,
      "whe": 4808,
      "kami": 4809,
      "ers": 4810,
      "Sar": 4811,
      "mumbai": 4812,
      "reach": 4813,
      "hypo": 4814,
      "played": 4815,
      "gave": 4816,
      "garee": 4817,
      "Eng": 4818,
      "Bol": 4819,
      "karunga": 4820,
      "31": 4821,
      "tomorrow": 4822,
      "itely": 4823,
      "smart": 4824,
      "sit": 4825,
      "banta": 4826,
      "foot": 4827,
      "bio": 4828,
      "boo": 4829,
      "Pata": 4830,
      "bich": 4831,
      "uda": 4832,
      "simba": 4833,
      "mid": 4834,
      "hell": 4835,
      "shal": 4836,
      "dekhta": 4837,
      "stupid": 4838,
      "pakka": 4839,
      "sister": 4840,
      "according": 4841,
      "isn": 4842,
      "akhi": 4843,
      "rampal": 4844,
      "All": 4845,
      "arre": 4846,
      "badha": 4847,
      "politici": 4848,
      "ctors": 4849,
      "whatsapp": 4850,
      "boys": 4851,
      "vio": 4852,
      "orig": 4853,
      "Raha": 4854,
      "gl": 4855,
      "Sing": 4856,
      "95": 4857,
      "Tr": 4858,
      "yaan": 4859,
      "sum": 4860,
      "extra": 4861,
      "ishq": 4862,
      "mauka": 4863,
      "niche": 4864,
      "Now": 4865,
      "titude": 4866,
      "khelne": 4867,
      "THE": 4868,
      "indust": 4869,
      "mail": 4870,
      "Its": 4871,
      "hoke": 4872,
      "sabka": 4873,
      "hug": 4874,
      "woman": 4875,
      "atic": 4876,
      "security": 4877,
      "promise": 4878,
      "gold": 4879,
      "outside": 4880,
      "page": 4881,
      "tot": 4882,
      "kii": 4883,
      "asking": 4884,
      "len": 4885,
      "leg": 4886,
      "Acha": 4887,
      "track": 4888,
      "oon": 4889,
      "chand": 4890,
      "value": 4891,
      "culture": 4892,
      "bacho": 4893,
      "create": 4894,
      "ghanta": 4895,
      "doge": 4896,
      "sour": 4897,
      "GA": 4898,
      "secre": 4899,
      "confir": 4900,
      "phele": 4901,
      "reaction": 4902,
      "malik": 4903,
      "statement": 4904,
      "When": 4905,
      "😀😀": 4906,
      "ify": 4907,
      "marriage": 4908,
      "Hu": 4909,
      "Bhi": 4910,
      "forget": 4911,
      "Pri": 4912,
      "sharm": 4913,
      "version": 4914,
      "UN": 4915,
      "48": 4916,
      "ddle": 4917,
      "goes": 4918,
      "jarur": 4919,
      "ffic": 4920,
      "t20": 4921,
      "blue": 4922,
      "jiske": 4923,
      "happiness": 4924,
      "ised": 4925,
      "75": 4926,
      "explain": 4927,
      "instead": 4928,
      "seed": 4929,
      "dik": 4930,
      "dedo": 4931,
      "Sun": 4932,
      "didnt": 4933,
      "ago": 4934,
      "following": 4935,
      "weekend": 4936,
      "Han": 4937,
      "btao": 4938,
      "area": 4939,
      "pics": 4940,
      "dusra": 4941,
      ",,,": 4942,
      "conta": 4943,
      "biggest": 4944,
      "dic": 4945,
      "anak": 4946,
      "kkat": 4947,
      "CH": 4948,
      "lines": 4949,
      "dhi": 4950,
      "32": 4951,
      "met": 4952,
      "aayegi": 4953,
      "pression": 4954,
      "lf": 4955,
      "PA": 4956,
      "vishal": 4957,
      "pha": 4958,
      "Sid": 4959,
      "hindust": 4960,
      "gang": 4961,
      "Min": 4962,
      "himself": 4963,
      "general": 4964,
      "contestant": 4965,
      "sug": 4966,
      "ener": 4967,
      "gran": 4968,
      "Jan": 4969,
      "friendship": 4970,
      "maaf": 4971,
      "😜😜": 4972,
      "lets": 4973,
      "interview": 4974,
      "deni": 4975,
      "verse": 4976,
      "3rd": 4977,
      "batana": 4978,
      "dent": 4979,
      "ately": 4980,
      "south": 4981,
      "eli": 4982,
      "2019": 4983,
      "samjhe": 4984,
      "pit": 4985,
      "aai": 4986,
      "zz": 4987,
      "rape": 4988,
      "narendra": 4989,
      "300": 4990,
      "flo": 4991,
      "ghu": 4992,
      "mistake": 4993,
      "kb": 4994,
      "fee": 4995,
      "learn": 4996,
      "origin": 4997,
      "Arey": 4998,
      "DA": 4999,
      "stream": 5000,
      "trending": 5001,
      "force": 5002,
      ".......": 5003,
      "pya": 5004,
      "dikkat": 5005,
      "khela": 5006,
      "hip": 5007,
      "IR": 5008,
      "nz": 5009,
      "dead": 5010,
      "krenge": 5011,
      "Kab": 5012,
      "blood": 5013,
      "official": 5014,
      "continue": 5015,
      "US": 5016,
      "waah": 5017,
      "dada": 5018,
      "baj": 5019,
      "solve": 5020,
      "banne": 5021,
      "society": 5022,
      "celebrate": 5023,
      "sharma": 5024,
      "kee": 5025,
      "biased": 5026,
      "At": 5027,
      "nan": 5028,
      "confidence": 5029,
      "definitely": 5030,
      "kids": 5031,
      "attitude": 5032,
      "development": 5033,
      "taki": 5034,
      "ssi": 5035,
      "international": 5036,
      "sham": 5037,
      "zero": 5038,
      "absolute": 5039,
      "lye": 5040,
      "Bil": 5041,
      "krni": 5042,
      "BA": 5043,
      "bharosa": 5044,
      "Je": 5045,
      "sound": 5046,
      "fy": 5047,
      "solo": 5048,
      "foo": 5049,
      "chuki": 5050,
      "chine": 5051,
      "neha": 5052,
      "ctions": 5053,
      "worst": 5054,
      "caste": 5055,
      "mother": 5056,
      "layak": 5057,
      "image": 5058,
      "💔💔": 5059,
      "KI": 5060,
      "tific": 5061,
      "behind": 5062,
      "intera": 5063,
      "math": 5064,
      "jhu": 5065,
      "inno": 5066,
      "chahi": 5067,
      "skti": 5068,
      "ference": 5069,
      "coin": 5070,
      "champ": 5071,
      "style": 5072,
      "genu": 5073,
      "paani": 5074,
      "karw": 5075,
      "terrorist": 5076,
      "ulta": 5077,
      "kisiko": 5078,
      "espe": 5079,
      "Gandhi": 5080,
      "genuine": 5081,
      "sans": 5082,
      "xi": 5083,
      "flu": 5084,
      "mane": 5085,
      "dusri": 5086,
      "lang": 5087,
      "kisko": 5088,
      "chahti": 5089,
      "zen": 5090,
      "krega": 5091,
      "sthan": 5092,
      "welcome": 5093,
      "umeed": 5094,
      "choose": 5095,
      "kaala": 5096,
      "minutes": 5097,
      "rai": 5098,
      "kers": 5099,
      "YOU": 5100,
      "middle": 5101,
      "sche": 5102,
      "appro": 5103,
      "young": 5104,
      "salary": 5105,
      "Pun": 5106,
      "bail": 5107,
      "bewa": 5108,
      "adhi": 5109,
      "information": 5110,
      "koof": 5111,
      "dikhaya": 5112,
      "jisse": 5113,
      "batting": 5114,
      "boring": 5115,
      "Nis": 5116,
      "chori": 5117,
      "fuck": 5118,
      "jam": 5119,
      "ladesh": 5120,
      "study": 5121,
      "effe": 5122,
      "KO": 5123,
      "Haa": 5124,
      "terday": 5125,
      "zarurat": 5126,
      "cases": 5127,
      "khul": 5128,
      "hehe": 5129,
      "cir": 5130,
      "base": 5131,
      "kutte": 5132,
      "98": 5133,
      "posed": 5134,
      "victi": 5135,
      "gho": 5136,
      "felt": 5137,
      "jaega": 5138,
      "cure": 5139,
      "Lol": 5140,
      "Love": 5141,
      "hele": 5142,
      "aila": 5143,
      "imagine": 5144,
      "crypto": 5145,
      "reservation": 5146,
      "suggest": 5147,
      "____": 5148,
      "opposition": 5149,
      "wil": 5150,
      "mudda": 5151,
      "seeing": 5152,
      "legal": 5153,
      "hii": 5154,
      "sports": 5155,
      "IM": 5156,
      "dikhe": 5157,
      "crimin": 5158,
      "May": 5159,
      "dharam": 5160,
      "ott": 5161,
      "clearly": 5162,
      "water": 5163,
      "Ram": 5164,
      "gree": 5165,
      "insu": 5166,
      "madad": 5167,
      "mohabbat": 5168,
      "khuda": 5169,
      "cam": 5170,
      "alone": 5171,
      "text": 5172,
      "hatever": 5173,
      "San": 5174,
      "omg": 5175,
      "tali": 5176,
      "dush": 5177,
      "bes": 5178,
      "jhoot": 5179,
      "bien": 5180,
      "veer": 5181,
      "qi": 5182,
      "aaz": 5183,
      "matches": 5184,
      "pour": 5185,
      "cross": 5186,
      "temple": 5187,
      "google": 5188,
      "myself": 5189,
      "article": 5190,
      "pair": 5191,
      "poori": 5192,
      "abt": 5193,
      "hahahaha": 5194,
      "saale": 5195,
      "talent": 5196,
      "namaz": 5197,
      "jinda": 5198,
      "Muslim": 5199,
      "mme": 5200,
      "thode": 5201,
      "bel": 5202,
      "Com": 5203,
      "marzi": 5204,
      "rad": 5205,
      "doesnt": 5206,
      "beng": 5207,
      "lers": 5208,
      "bd": 5209,
      "ativity": 5210,
      "promote": 5211,
      "pooch": 5212,
      "thay": 5213,
      "kund": 5214,
      "fool": 5215,
      "condition": 5216,
      "ustralia": 5217,
      "solution": 5218,
      "related": 5219,
      "feelings": 5220,
      "Chu": 5221,
      "aadat": 5222,
      "BC": 5223,
      "cine": 5224,
      "koon": 5225,
      "masjid": 5226,
      "kasam": 5227,
      "oned": 5228,
      "supporting": 5229,
      "bataye": 5230,
      "ator": 5231,
      "jiska": 5232,
      "hol": 5233,
      "bekar": 5234,
      "haii": 5235,
      "cei": 5236,
      "thora": 5237,
      "bility": 5238,
      "dak": 5239,
      "vision": 5240,
      "akal": 5241,
      "accoun": 5242,
      "ailable": 5243,
      "adv": 5244,
      "kehta": 5245,
      "tau": 5246,
      "bf": 5247,
      "critic": 5248,
      "farmers": 5249,
      "jitni": 5250,
      "aar": 5251,
      "members": 5252,
      "seems": 5253,
      "achhe": 5254,
      "local": 5255,
      "yrs": 5256,
      "indians": 5257,
      "celeb": 5258,
      "2020": 5259,
      "::": 5260,
      "thaa": 5261,
      "stra": 5262,
      "yesterday": 5263,
      "jeeta": 5264,
      "evi": 5265,
      "soft": 5266,
      "mark": 5267,
      "pand": 5268,
      "cin": 5269,
      "hur": 5270,
      "chap": 5271,
      "elle": 5272,
      "bachpan": 5273,
      "zed": 5274,
      "bum": 5275,
      "khair": 5276,
      "trai": 5277,
      "voting": 5278,
      "petition": 5279,
      "56": 5280,
      "ow": 5281,
      "lesh": 5282,
      "ghus": 5283,
      "zaar": 5284,
      "nomin": 5285,
      "hae": 5286,
      "favorite": 5287,
      "announce": 5288,
      "lal": 5289,
      "dikhao": 5290,
      "hig": 5291,
      "phi": 5292,
      "surpri": 5293,
      "subha": 5294,
      "Vir": 5295,
      "questions": 5296,
      "toi": 5297,
      "university": 5298,
      "BE": 5299,
      "ual": 5300,
      "tare": 5301,
      "hisaab": 5302,
      "lucky": 5303,
      "debate": 5304,
      "zo": 5305,
      "reat": 5306,
      "bene": 5307,
      "tel": 5308,
      "limit": 5309,
      "ave": 5310,
      "larki": 5311,
      "aka": 5312,
      "popular": 5313,
      "aara": 5314,
      "swa": 5315,
      "weeks": 5316,
      "ATI": 5317,
      "Pra": 5318,
      "chr": 5319,
      "bharath": 5320,
      "ashi": 5321,
      "37": 5322,
      "Vi": 5323,
      "zy": 5324,
      "sahe": 5325,
      "Bahut": 5326,
      "padhai": 5327,
      "khelna": 5328,
      "emplo": 5329,
      "gadhe": 5330,
      "meaning": 5331,
      "bari": 5332,
      "🙏🙏🙏🙏": 5333,
      "web": 5334,
      "Sirf": 5335,
      "49": 5336,
      "shining": 5337,
      "UMAR": 5338,
      "notice": 5339,
      "field": 5340,
      "spi": 5341,
      "towards": 5342,
      "gage": 5343,
      "ohh": 5344,
      "eu": 5345,
      "railway": 5346,
      "pie": 5347,
      "unity": 5348,
      "ony": 5349,
      "industry": 5350,
      "Rahul": 5351,
      "whatever": 5352,
      "dikhane": 5353,
      "captaincy": 5354,
      "kaan": 5355,
      "ngi": 5356,
      "dein": 5357,
      "istry": 5358,
      "buri": 5359,
      "ame": 5360,
      "aak": 5361,
      "irrit": 5362,
      "zaroorat": 5363,
      "rote": 5364,
      "sambhal": 5365,
      "speech": 5366,
      "CM": 5367,
      "winning": 5368,
      "contact": 5369,
      "hmare": 5370,
      "uspe": 5371,
      "squ": 5372,
      "kum": 5373,
      "bag": 5374,
      "vala": 5375,
      "bandh": 5376,
      "lor": 5377,
      "Mahara": 5378,
      "pucha": 5379,
      "Thanks": 5380,
      "gham": 5381,
      "skills": 5382,
      "Mi": 5383,
      "GO": 5384,
      "AND": 5385,
      "banate": 5386,
      "obvious": 5387,
      "lakin": 5388,
      "brand": 5389,
      "banao": 5390,
      "suno": 5391,
      "jaruri": 5392,
      "heard": 5393,
      "sted": 5394,
      "idk": 5395,
      "jisme": 5396,
      "joh": 5397,
      "fication": 5398,
      "holi": 5399,
      "cate": 5400,
      "based": 5401,
      "meme": 5402,
      "©©": 5403,
      "recent": 5404,
      "available": 5405,
      "convers": 5406,
      "tik": 5407,
      "missing": 5408,
      "allo": 5409,
      "kejriwal": 5410,
      "amir": 5411,
      "cannot": 5412,
      "Ali": 5413,
      "taken": 5414,
      "nara": 5415,
      "rajiv": 5416,
      "marks": 5417,
      "karma": 5418,
      "ute": 5419,
      "mou": 5420,
      "rss": 5421,
      "pakad": 5422,
      "There": 5423,
      "festi": 5424,
      "chote": 5425,
      "nata": 5426,
      "reve": 5427,
      "gain": 5428,
      "states": 5429,
      "oper": 5430,
      "president": 5431,
      "ws": 5432,
      "mama": 5433,
      "unfollow": 5434,
      "unfair": 5435,
      "Christmas": 5436,
      "dhund": 5437,
      "dao": 5438,
      "46": 5439,
      "entire": 5440,
      "naye": 5441,
      "bhala": 5442,
      "wara": 5443,
      "fur": 5444,
      "aching": 5445,
      "bts": 5446,
      "pita": 5447,
      "until": 5448,
      "plat": 5449,
      "station": 5450,
      "crying": 5451,
      "wicket": 5452,
      "aath": 5453,
      "huge": 5454,
      "loan": 5455,
      "babu": 5456,
      "argu": 5457,
      "hits": 5458,
      "Khud": 5459,
      "Shamita": 5460,
      "basic": 5461,
      "aukaat": 5462,
      "Desh": 5463,
      "ural": 5464,
      "mine": 5465,
      "isha": 5466,
      "nga": 5467,
      "runs": 5468,
      "concer": 5469,
      "prin": 5470,
      "38": 5471,
      "kiss": 5472,
      "mostly": 5473,
      "arrest": 5474,
      "wear": 5475,
      "Bilkul": 5476,
      "Waise": 5477,
      "sri": 5478,
      "rishta": 5479,
      "Tumhe": 5480,
      "Like": 5481,
      "96": 5482,
      "totally": 5483,
      "expose": 5484,
      "saja": 5485,
      "gas": 5486,
      "december": 5487,
      "gg": 5488,
      "SO": 5489,
      "claim": 5490,
      "medical": 5491,
      "usion": 5492,
      "thak": 5493,
      "ghal": 5494,
      "bcoz": 5495,
      "kaal": 5496,
      "havi": 5497,
      "lagaya": 5498,
      "twt": 5499,
      "hmm": 5500,
      "mereko": 5501,
      "saat": 5502,
      "original": 5503,
      "except": 5504,
      "barbad": 5505,
      "faida": 5506,
      "sses": 5507,
      "cheap": 5508,
      "roti": 5509,
      "Ghar": 5510,
      "vari": 5511,
      "aayenge": 5512,
      "🤔🤔": 5513,
      "agenda": 5514,
      "problems": 5515,
      "subs": 5516,
      "dikhana": 5517,
      "pai": 5518,
      "weak": 5519,
      "excited": 5520,
      "engine": 5521,
      "telling": 5522,
      "daar": 5523,
      "comedy": 5524,
      "Ve": 5525,
      "hna": 5526,
      "52": 5527,
      "ility": 5528,
      "Matlab": 5529,
      "ben": 5530,
      "Same": 5531,
      "agle": 5532,
      "jaroor": 5533,
      "tele": 5534,
      "Some": 5535,
      "sider": 5536,
      "Ak": 5537,
      "dden": 5538,
      "ladai": 5539,
      "beat": 5540,
      "pahu": 5541,
      "compar": 5542,
      "gareeb": 5543,
      "dhad": 5544,
      "krwa": 5545,
      "peela": 5546,
      "samj": 5547,
      "mata": 5548,
      "science": 5549,
      "bably": 5550,
      "chacha": 5551,
      "mess": 5552,
      "status": 5553,
      "tru": 5554,
      "hindustan": 5555,
      "keliye": 5556,
      "offer": 5557,
      "chain": 5558,
      "ping": 5559,
      "later": 5560,
      "living": 5561,
      "minute": 5562,
      "___": 5563,
      "century": 5564,
      "zada": 5565,
      "rubina": 5566,
      "clean": 5567,
      "itizen": 5568,
      "jise": 5569,
      "jaayega": 5570,
      "Lag": 5571,
      "dress": 5572,
      "tual": 5573,
      "allow": 5574,
      "haf": 5575,
      "khayal": 5576,
      "plo": 5577,
      "jag": 5578,
      "bolke": 5579,
      "either": 5580,
      "facts": 5581,
      "angle": 5582,
      "bots": 5583,
      "increase": 5584,
      "hore": 5585,
      "shakal": 5586,
      "lose": 5587,
      "biwi": 5588,
      "rahay": 5589,
      "mantri": 5590,
      "touch": 5591,
      "selves": 5592,
      "ghante": 5593,
      "reed": 5594,
      "jaoge": 5595,
      "drugs": 5596,
      "laws": 5597,
      "pollution": 5598,
      "pretty": 5599,
      "Teri": 5600,
      "elections": 5601,
      "step": 5602,
      "kehne": 5603,
      "En": 5604,
      "😹😹": 5605,
      "freedom": 5606,
      "cott": 5607,
      "entry": 5608,
      "dialogue": 5609,
      "stan": 5610,
      "appreciate": 5611,
      "sapne": 5612,
      "eter": 5613,
      "ego": 5614,
      "pick": 5615,
      "😔😔": 5616,
      "rahy": 5617,
      "maare": 5618,
      "reel": 5619,
      "lijiye": 5620,
      "ric": 5621,
      "chut": 5622,
      "shree": 5623,
      "victim": 5624,
      "🙂🙂": 5625,
      "upload": 5626,
      "protect": 5627,
      "stage": 5628,
      "suit": 5629,
      "jald": 5630,
      "achcha": 5631,
      "murder": 5632,
      "dala": 5633,
      "hammad": 5634,
      "bhaag": 5635,
      "ration": 5636,
      "Que": 5637,
      "khoon": 5638,
      "christmas": 5639,
      "baccho": 5640,
      "kanoon": 5641,
      "laise": 5642,
      "akela": 5643,
      "gandi": 5644,
      "behavi": 5645,
      "khaya": 5646,
      "KARAN": 5647,
      "three": 5648,
      "meeting": 5649,
      "Singh": 5650,
      "CO": 5651,
      "kes": 5652,
      "abey": 5653,
      "iye": 5654,
      "calling": 5655,
      "ray": 5656,
      "gayab": 5657,
      "leag": 5658,
      "path": 5659,
      "kaho": 5660,
      "confirm": 5661,
      "baal": 5662,
      "profile": 5663,
      "recei": 5664,
      "sabki": 5665,
      "starting": 5666,
      "banna": 5667,
      "jinko": 5668,
      "😂😂😂😂😂": 5669,
      "absolutely": 5670,
      "sos": 5671,
      "rakhte": 5672,
      "gone": 5673,
      "otherwise": 5674,
      "dumb": 5675,
      "targeting": 5676,
      "rules": 5677,
      "abuse": 5678,
      "citizen": 5679,
      "gradu": 5680,
      "gut": 5681,
      "darshan": 5682,
      "payega": 5683,
      "asa": 5684,
      "semi": 5685,
      "ons": 5686,
      "pichle": 5687,
      "xy": 5688,
      "score": 5689,
      "TH": 5690,
      "majority": 5691,
      "known": 5692,
      "musalman": 5693,
      "countries": 5694,
      "tat": 5695,
      "mah": 5696,
      "cbi": 5697,
      "sayad": 5698,
      "vahi": 5699,
      "near": 5700,
      "Dekh": 5701,
      "🇵🇰": 5702,
      "padhe": 5703,
      "address": 5704,
      "haters": 5705,
      "haina": 5706,
      "gae": 5707,
      "WE": 5708,
      "shoot": 5709,
      "provide": 5710,
      "loyal": 5711,
      "tagline": 5712,
      "😒😒": 5713,
      "Kaun": 5714,
      "khade": 5715,
      "damn": 5716,
      "thread": 5717,
      "lockdown": 5718,
      "gol": 5719,
      "subscri": 5720,
      "secret": 5721,
      "evil": 5722,
      "lap": 5723,
      "lat": 5724,
      "gov": 5725,
      "scam": 5726,
      "barbaad": 5727,
      "JA": 5728,
      "crime": 5729,
      "chalte": 5730,
      "pehla": 5731,
      "waala": 5732,
      "pd": 5733,
      "44": 5734,
      "aat": 5735,
      "books": 5736,
      "process": 5737,
      "seekh": 5738,
      "ising": 5739,
      "festival": 5740,
      "negativity": 5741,
      "married": 5742,
      "gill": 5743,
      "population": 5744,
      "probably": 5745,
      "lao": 5746,
      "apply": 5747,
      "term": 5748,
      "malum": 5749,
      "wing": 5750,
      "chen": 5751,
      "blind": 5752,
      "lts": 5753,
      "round": 5754,
      "OF": 5755,
      "liber": 5756,
      "ley": 5757,
      "memor": 5758,
      "certific": 5759,
      "DM": 5760,
      "contra": 5761,
      "disap": 5762,
      "scenes": 5763,
      "utar": 5764,
      "dhoni": 5765,
      "baitha": 5766,
      "legend": 5767,
      "naz": 5768,
      "footage": 5769,
      "reg": 5770,
      "suffe": 5771,
      "fc": 5772,
      "games": 5773,
      "bowling": 5774,
      "uu": 5775,
      "shallah": 5776,
      "83": 5777,
      "December": 5778,
      "..!!": 5779,
      "Kash": 5780,
      "ado": 5781,
      "Baat": 5782,
      "likhe": 5783,
      "waja": 5784,
      "andhe": 5785,
      "neeche": 5786,
      "period": 5787,
      "sometimes": 5788,
      "tie": 5789,
      "vidu": 5790,
      "abo": 5791,
      "perform": 5792,
      "Am": 5793,
      "conversation": 5794,
      "emoji": 5795,
      "dude": 5796,
      "lge": 5797,
      "sahib": 5798,
      "khon": 5799,
      "meine": 5800,
      "taliban": 5801,
      "Let": 5802,
      "foto": 5803,
      "knew": 5804,
      "response": 5805,
      "Wala": 5806,
      "lives": 5807,
      "entertainment": 5808,
      "ref": 5809,
      "babar": 5810,
      "achhi": 5811,
      "lots": 5812,
      "vya": 5813,
      "Bharat": 5814,
      "worth": 5815,
      "journalist": 5816,
      "colo": 5817,
      "medal": 5818,
      "kariye": 5819,
      "humein": 5820,
      "push": 5821,
      "pc": 5822,
      "banega": 5823,
      "engage": 5824,
      "sell": 5825,
      "fraud": 5826,
      "Punjab": 5827,
      "emotions": 5828,
      "shir": 5829,
      "heen": 5830,
      "khate": 5831,
      "cracy": 5832,
      "ideo": 5833,
      "stock": 5834,
      "wad": 5835,
      "complain": 5836,
      "mega": 5837,
      "voot": 5838,
      "shop": 5839,
      "program": 5840,
      "Sor": 5841,
      "Nishant": 5842,
      "constitu": 5843,
      "total": 5844,
      "propa": 5845,
      "votes": 5846,
      "inhone": 5847,
      "tumlog": 5848,
      "rina": 5849,
      "dhadkan": 5850,
      "kaya": 5851,
      "inside": 5852,
      "actual": 5853,
      "necess": 5854,
      "react": 5855,
      "event": 5856,
      "brah": 5857,
      "yani": 5858,
      "innocent": 5859,
      "Rash": 5860,
      "religious": 5861,
      "especially": 5862,
      "nahe": 5863,
      "GE": 5864,
      "review": 5865,
      "waisi": 5866,
      "degree": 5867,
      "bure": 5868,
      "mak": 5869,
      "stuff": 5870,
      "exc": 5871,
      "tence": 5872,
      "elect": 5873,
      "🙏🙏🙏": 5874,
      "completely": 5875,
      "opport": 5876,
      "ged": 5877,
      "sbko": 5878,
      "priority": 5879,
      "points": 5880,
      "hash": 5881,
      "garib": 5882,
      "Shi": 5883,
      "ameri": 5884,
      "sone": 5885,
      "TS": 5886,
      "Every": 5887,
      "cold": 5888,
      "suru": 5889,
      "koyi": 5890,
      "forward": 5891,
      "kundra": 5892,
      "vikas": 5893,
      "97": 5894,
      "bengal": 5895,
      "cell": 5896,
      "SH": 5897,
      "Bir": 5898,
      "apas": 5899,
      "killed": 5900,
      "Wor": 5901,
      "belong": 5902,
      "Haha": 5903,
      "tial": 5904,
      "RO": 5905,
      "khatm": 5906,
      "kets": 5907,
      "aae": 5908,
      "😊😊": 5909,
      "individu": 5910,
      "khelte": 5911,
      "incl": 5912,
      "destro": 5913,
      "kama": 5914,
      "lana": 5915,
      "hiya": 5916,
      "economy": 5917,
      "milenge": 5918,
      "waas": 5919,
      "marna": 5920,
      "details": 5921,
      "kise": 5922,
      "collection": 5923,
      "shak": 5924,
      "personality": 5925,
      "khelta": 5926,
      "partici": 5927,
      "ns": 5928,
      "gif": 5929,
      "remain": 5930,
      "boycott": 5931,
      "convo": 5932,
      "competition": 5933,
      "script": 5934,
      "Sorry": 5935,
      "jor": 5936,
      "Big": 5937,
      "green": 5938,
      "sac": 5939,
      "jesa": 5940,
      "aren": 5941,
      "youre": 5942,
      "trailer": 5943,
      "ria": 5944,
      "eye": 5945,
      "commit": 5946,
      "SHA": 5947,
      "sbse": 5948,
      "jeetne": 5949,
      "bap": 5950,
      "extre": 5951,
      "apo": 5952,
      "reali": 5953,
      "Ru": 5954,
      "ayenge": 5955,
      "energy": 5956,
      "Who": 5957,
      "aesa": 5958,
      "lain": 5959,
      "toot": 5960,
      "jaao": 5961,
      "uper": 5962,
      "Asim": 5963,
      "promotion": 5964,
      "liste": 5965,
      "TV": 5966,
      "Iss": 5967,
      "varna": 5968,
      "rights": 5969,
      "kutta": 5970,
      "One": 5971,
      "rahte": 5972,
      "weet": 5973,
      "kn": 5974,
      "travel": 5975,
      "itual": 5976,
      "🤦🏻": 5977,
      "thori": 5978,
      "tered": 5979,
      "opening": 5980,
      "Kha": 5981,
      "®®®": 5982,
      "bey": 5983,
      "gives": 5984,
      "apse": 5985,
      "advice": 5986,
      "dk": 5987,
      "doo": 5988,
      "05": 5989,
      "internet": 5990,
      "kabi": 5991,
      "bahu": 5992,
      "avi": 5993,
      "ia": 5994,
      "pray": 5995,
      "understanding": 5996,
      "customer": 5997,
      "chahie": 5998,
      "chomu": 5999,
      "mey": 6000,
      "saint": 6001,
      "Hawa": 6002,
      "Yeah": 6003,
      "vas": 6004,
      "seni": 6005,
      "doctors": 6006,
      "dungi": 6007,
      "dekhti": 6008,
      "boot": 6009,
      "Uni": 6010,
      "olan": 6011,
      "84": 6012,
      "pel": 6013,
      "instagram": 6014,
      "bandi": 6015,
      "Ohh": 6016,
      "khada": 6017,
      "actors": 6018,
      "..!": 6019,
      "gic": 6020,
      "consider": 6021,
      "bolu": 6022,
      "aja": 6023,
      "allowed": 6024,
      "soche": 6025,
      "tery": 6026,
      "fame": 6027,
      "gri": 6028,
      "poore": 6029,
      "chha": 6030,
      "kala": 6031,
      "distri": 6032,
      "early": 6033,
      "offline": 6034,
      "deke": 6035,
      "supreme": 6036,
      "ekdum": 6037,
      "kate": 6038,
      "research": 6039,
      "kata": 6040,
      "MO": 6041,
      "qat": 6042,
      "payment": 6043,
      "Itni": 6044,
      "lady": 6045,
      "fate": 6046,
      "odh": 6047,
      "BHI": 6048,
      "logical": 6049,
      "tried": 6050,
      "strate": 6051,
      "sochte": 6052,
      "Sam": 6053,
      "invol": 6054,
      "dry": 6055,
      "dhak": 6056,
      "zor": 6057,
      "quote": 6058,
      "along": 6059,
      "cation": 6060,
      "Modiji": 6061,
      "park": 6062,
      "maro": 6063,
      "mins": 6064,
      "dikhate": 6065,
      "sil": 6066,
      "atives": 6067,
      "exper": 6068,
      "planning": 6069,
      "vai": 6070,
      "01": 6071,
      "hru": 6072,
      "Bc": 6073,
      "beg": 6074,
      "nature": 6075,
      "behan": 6076,
      "dushman": 6077,
      "techni": 6078,
      "waali": 6079,
      "frnd": 6080,
      "candid": 6081,
      "write": 6082,
      "nada": 6083,
      "cost": 6084,
      "Raj": 6085,
      "Exactly": 6086,
      "maat": 6087,
      "sunday": 6088,
      "saheb": 6089,
      "mini": 6090,
      "()": 6091,
      "contestants": 6092,
      "beth": 6093,
      "ID": 6094,
      "karle": 6095,
      "Pl": 6096,
      "legi": 6097,
      "physical": 6098,
      "sochna": 6099,
      "bhav": 6100,
      "hatt": 6101,
      "cham": 6102,
      "lax": 6103,
      "bath": 6104,
      "nos": 6105,
      "pti": 6106,
      "deserves": 6107,
      "karungi": 6108,
      "hadd": 6109,
      "07": 6110,
      "rul": 6111,
      "cest": 6112,
      "rehe": 6113,
      "Tha": 6114,
      "anal": 6115,
      "jung": 6116,
      "bohut": 6117,
      "leak": 6118,
      "cake": 6119,
      "jun": 6120,
      "sau": 6121,
      "behave": 6122,
      "ancy": 6123,
      "Baro": 6124,
      "gusting": 6125,
      "Ban": 6126,
      "ajj": 6127,
      "Even": 6128,
      "Pre": 6129,
      "Ad": 6130,
      "regul": 6131,
      "intro": 6132,
      "nikla": 6133,
      "El": 6134,
      "leef": 6135,
      "shami": 6136,
      "tp": 6137,
      "Da": 6138,
      "certificate": 6139,
      "kapde": 6140,
      "andolan": 6141,
      "aajkal": 6142,
      "shaan": 6143,
      "masla": 6144,
      "multi": 6145,
      "Can": 6146,
      "kaisi": 6147,
      "Virat": 6148,
      "teams": 6149,
      "sune": 6150,
      "Hota": 6151,
      "works": 6152,
      "roo": 6153,
      "kita": 6154,
      "hour": 6155,
      "clip": 6156,
      "nei": 6157,
      "results": 6158,
      "interesting": 6159,
      "hre": 6160,
      "khabar": 6161,
      "khele": 6162,
      "baja": 6163,
      "matters": 6164,
      "baccha": 6165,
      "Fe": 6166,
      "loge": 6167,
      "cru": 6168,
      "thand": 6169,
      "SC": 6170,
      "Ok": 6171,
      "Hahaha": 6172,
      "children": 6173,
      "zation": 6174,
      "border": 6175,
      "dewp": 6176,
      "wishes": 6177,
      "wedding": 6178,
      "sunne": 6179,
      "saara": 6180,
      "hasi": 6181,
      "gc": 6182,
      "dafa": 6183,
      "jinke": 6184,
      "nobody": 6185,
      "behtar": 6186,
      "officer": 6187,
      "gam": 6188,
      "majak": 6189,
      "loot": 6190,
      "App": 6191,
      "yaada": 6192,
      "propaganda": 6193,
      "Rohit": 6194,
      "06": 6195,
      "nasha": 6196,
      "evening": 6197,
      "vember": 6198,
      "takes": 6199,
      "ange": 6200,
      "43": 6201,
      "random": 6202,
      "ager": 6203,
      "jiski": 6204,
      "simp": 6205,
      "Shah": 6206,
      "Dr": 6207,
      "tareef": 6208,
      "vaar": 6209,
      "86": 6210,
      "raaj": 6211,
      "1m": 6212,
      "chinta": 6213,
      "Qu": 6214,
      "rics": 6215,
      "compla": 6216,
      "👍👍": 6217,
      "rial": 6218,
      "Mum": 6219,
      "stands": 6220,
      "Mas": 6221,
      "bats": 6222,
      "zu": 6223,
      "vajah": 6224,
      "successful": 6225,
      "catch": 6226,
      "jahil": 6227,
      "😏😏": 6228,
      "violence": 6229,
      "akad": 6230,
      "uding": 6231,
      "corruption": 6232,
      "Arre": 6233,
      "shtra": 6234,
      "ink": 6235,
      "tribute": 6236,
      "wana": 6237,
      "Kis": 6238,
      "reco": 6239,
      "initi": 6240,
      "rif": 6241,
      "harm": 6242,
      "tang": 6243,
      "Karo": 6244,
      "janam": 6245,
      "click": 6246,
      "rather": 6247,
      "naman": 6248,
      "shanti": 6249,
      "DO": 6250,
      "His": 6251,
      "Koh": 6252,
      "ues": 6253,
      "liament": 6254,
      "rone": 6255,
      "laug": 6256,
      "hea": 6257,
      "39": 6258,
      "model": 6259,
      "Dek": 6260,
      "narr": 6261,
      "huyi": 6262,
      "regar": 6263,
      "hest": 6264,
      "moh": 6265,
      "notification": 6266,
      "showing": 6267,
      "ayegi": 6268,
      "chad": 6269,
      "poster": 6270,
      "bay": 6271,
      "ssing": 6272,
      "waal": 6273,
      "2000": 6274,
      "😝😝": 6275,
      "kyoki": 6276,
      "needed": 6277,
      "dare": 6278,
      "apny": 6279,
      "udh": 6280,
      ".,": 6281,
      "mahan": 6282,
      "north": 6283,
      "sukoon": 6284,
      "fear": 6285,
      "seek": 6286,
      "duty": 6287,
      "anim": 6288,
      "eat": 6289,
      "Kohli": 6290,
      "follower": 6291,
      "vat": 6292,
      "kahani": 6293,
      "85": 6294,
      "films": 6295,
      "lying": 6296,
      "rating": 6297,
      "awaz": 6298,
      "stories": 6299,
      "hoty": 6300,
      "chem": 6301,
      "jects": 6302,
      "IC": 6303,
      "mix": 6304,
      "insecure": 6305,
      "aggre": 6306,
      "rishte": 6307,
      "league": 6308,
      "jli": 6309,
      "stal": 6310,
      "vah": 6311,
      "rahegi": 6312,
      "CHO": 6313,
      "yy": 6314,
      "PP": 6315,
      "ties": 6316,
      "bike": 6317,
      "rho": 6318,
      "bcci": 6319,
      "attend": 6320,
      "BO": 6321,
      "incident": 6322,
      "chalti": 6323,
      "likhna": 6324,
      "cies": 6325,
      "major": 6326,
      "mode": 6327,
      "kardiya": 6328,
      "smo": 6329,
      "insult": 6330,
      "saalo": 6331,
      "nn": 6332,
      "humse": 6333,
      "lee": 6334,
      "isti": 6335,
      "lymp": 6336,
      "ards": 6337,
      "harma": 6338,
      "chahye": 6339,
      "avo": 6340,
      "inge": 6341,
      "awe": 6342,
      "sudhar": 6343,
      "bangladesh": 6344,
      "aut": 6345,
      "Yogi": 6346,
      "spend": 6347,
      "dila": 6348,
      "sarkari": 6349,
      "waisa": 6350,
      "Chan": 6351,
      "demic": 6352,
      "gira": 6353,
      "bhabhi": 6354,
      "glo": 6355,
      "aaa": 6356,
      "bharti": 6357,
      "download": 6358,
      "antim": 6359,
      "trade": 6360,
      "..?": 6361,
      "dose": 6362,
      "income": 6363,
      "journey": 6364,
      "uran": 6365,
      "saza": 6366,
      "practice": 6367,
      "rajasthan": 6368,
      "bechare": 6369,
      "lied": 6370,
      "lip": 6371,
      "watched": 6372,
      "utva": 6373,
      "wont": 6374,
      "goli": 6375,
      "Ch": 6376,
      "blessed": 6377,
      "dham": 6378,
      "Maharaj": 6379,
      "Islam": 6380,
      "ruling": 6381,
      "desi": 6382,
      "badla": 6383,
      "samjho": 6384,
      "virus": 6385,
      "lagane": 6386,
      "yg": 6387,
      "Du": 6388,
      "bash": 6389,
      "connection": 6390,
      "karde": 6391,
      "fucking": 6392,
      "teache": 6393,
      "sting": 6394,
      "complaint": 6395,
      "bhara": 6396,
      "ngth": 6397,
      "satta": 6398,
      "code": 6399,
      "Ri": 6400,
      "network": 6401,
      "bano": 6402,
      "Narendra": 6403,
      "150": 6404,
      "kismat": 6405,
      "risk": 6406,
      "urdu": 6407,
      "australia": 6408,
      "bhari": 6409,
      "dog": 6410,
      "product": 6411,
      "Of": 6412,
      "politicians": 6413,
      "frustr": 6414,
      "aran": 6415,
      "supporter": 6416,
      "76": 6417,
      "Yar": 6418,
      "challenge": 6419,
      "tually": 6420,
      "Bhag": 6421,
      "spot": 6422,
      "missed": 6423,
      "👇👇": 6424,
      "Apni": 6425,
      "bhagwa": 6426,
      "happening": 6427,
      "ssional": 6428,
      "user": 6429,
      "born": 6430,
      "bomb": 6431,
      "jas": 6432,
      "female": 6433,
      "choot": 6434,
      "dasti": 6435,
      "cricke": 6436,
      "boos": 6437,
      "changed": 6438,
      "earth": 6439,
      "dge": 6440,
      "Cor": 6441,
      "organ": 6442,
      "hardwork": 6443,
      "amount": 6444,
      "budget": 6445,
      "partner": 6446,
      "konsi": 6447,
      "anna": 6448,
      "Aa": 6449,
      "Chalo": 6450,
      "pucho": 6451,
      "hands": 6452,
      "mujhy": 6453,
      "hora": 6454,
      "fran": 6455,
      "gobar": 6456,
      "88": 6457,
      "krish": 6458,
      "nish": 6459,
      "Per": 6460,
      "edi": 6461,
      "hashtag": 6462,
      "Your": 6463,
      "express": 6464,
      "guzar": 6465,
      "mute": 6466,
      "03": 6467,
      "stron": 6468,
      "krlo": 6469,
      "democracy": 6470,
      "humar": 6471,
      "aland": 6472,
      "bachi": 6473,
      "Dar": 6474,
      "04": 6475,
      "krdo": 6476,
      "chunav": 6477,
      "foreign": 6478,
      "england": 6479,
      "purana": 6480,
      "hunga": 6481,
      "dekhu": 6482,
      "sabit": 6483,
      "suspend": 6484,
      "dange": 6485,
      "dhee": 6486,
      "Tak": 6487,
      "photos": 6488,
      "jabi": 6489,
      "tym": 6490,
      "sup": 6491,
      "disha": 6492,
      "bore": 6493,
      "cycle": 6494,
      "likhne": 6495,
      "ously": 6496,
      "bante": 6497,
      "Bs": 6498,
      "crisy": 6499,
      "❤❤❤❤": 6500,
      "above": 6501,
      "ought": 6502,
      "dwara": 6503,
      "2024": 6504,
      "02": 6505,
      "central": 6506,
      "reading": 6507,
      "lympic": 6508,
      "tease": 6509,
      "esi": 6510,
      "Hel": 6511,
      "godi": 6512,
      "bewakoof": 6513,
      "lyrics": 6514,
      "shut": 6515,
      "viral": 6516,
      "gujar": 6517,
      "diffic": 6518,
      "Also": 6519,
      "St": 6520,
      "repeat": 6521,
      "celebrity": 6522,
      "jr": 6523,
      "hazar": 6524,
      "08": 6525,
      "writing": 6526,
      "actre": 6527,
      "lai": 6528,
      "ahead": 6529,
      "AZ": 6530,
      "including": 6531,
      "anki": 6532,
      "interested": 6533,
      "BI": 6534,
      "vibes": 6535,
      "sidha": 6536,
      "Well": 6537,
      "marke": 6538,
      "mante": 6539,
      "bechara": 6540,
      "responsible": 6541,
      "saf": 6542,
      "****": 6543,
      "discussion": 6544,
      "uff": 6545,
      "piece": 6546,
      "akhir": 6547,
      "fill": 6548,
      "abba": 6549,
      "depend": 6550,
      "ssive": 6551,
      "section": 6552,
      "Log": 6553,
      "coach": 6554,
      "AAP": 6555,
      "ents": 6556,
      "taste": 6557,
      "wash": 6558,
      "Tera": 6559,
      "ication": 6560,
      "pop": 6561,
      "nuk": 6562,
      "sudden": 6563,
      "gla": 6564,
      "Time": 6565,
      "!?": 6566,
      "episodes": 6567,
      "youth": 6568,
      "rally": 6569,
      "source": 6570,
      "yers": 6571,
      "qe": 6572,
      "tas": 6573,
      "mano": 6574,
      "eth": 6575,
      "wild": 6576,
      "repor": 6577,
      "Tube": 6578,
      "kharid": 6579,
      "tourna": 6580,
      "93": 6581,
      "aese": 6582,
      "cof": 6583,
      "regi": 6584,
      "dekhke": 6585,
      "bakwaas": 6586,
      "fighting": 6587,
      "handsome": 6588,
      "spiritual": 6589,
      "jhooth": 6590,
      "meter": 6591,
      "hv": 6592,
      "baha": 6593,
      "kiske": 6594,
      "memes": 6595,
      "Mr": 6596,
      "ERE": 6597,
      "accounts": 6598,
      "warri": 6599,
      "themselves": 6600,
      "professional": 6601,
      "bik": 6602,
      "bestie": 6603,
      "finale": 6604,
      "chla": 6605,
      "maut": 6606,
      "seedha": 6607,
      "lyn": 6608,
      "bhen": 6609,
      "ies": 6610,
      "gaon": 6611,
      "leni": 6612,
      "todo": 6613,
      "weather": 6614,
      "shirt": 6615,
      "average": 6616,
      "roman": 6617,
      "sence": 6618,
      "raid": 6619,
      "gaane": 6620,
      "rich": 6621,
      "lagne": 6622,
      "pite": 6623,
      "wai": 6624,
      "within": 6625,
      "iste": 6626,
      "English": 6627,
      "yadav": 6628,
      "categ": 6629,
      "tuk": 6630,
      "nikala": 6631,
      "baa": 6632,
      "mature": 6633,
      "pointed": 6634,
      "rkh": 6635,
      "evide": 6636,
      "sadak": 6637,
      "ughter": 6638,
      "conve": 6639,
      "obviously": 6640,
      "thoughts": 6641,
      "garh": 6642,
      "jala": 6643,
      "tuje": 6644,
      "400": 6645,
      "chiye": 6646,
      "happens": 6647,
      "specially": 6648,
      "ene": 6649,
      "wasn": 6650,
      "ziada": 6651,
      "rakhne": 6652,
      "rn": 6653,
      "written": 6654,
      "clar": 6655,
      "😌😌": 6656,
      "false": 6657,
      "generation": 6658,
      "thee": 6659,
      "takleef": 6660,
      "mafi": 6661,
      "airport": 6662,
      "gum": 6663,
      "cab": 6664,
      "icc": 6665,
      "tbh": 6666,
      "hmesha": 6667,
      "vali": 6668,
      "meez": 6669,
      "rous": 6670,
      "Bus": 6671,
      "ished": 6672,
      "mass": 6673,
      "employe": 6674,
      "🥳🥳": 6675,
      "building": 6676,
      "purane": 6677,
      "policy": 6678,
      "investig": 6679,
      "running": 6680,
      "Kon": 6681,
      "bhale": 6682,
      "easily": 6683,
      "41": 6684,
      "sele": 6685,
      "dhang": 6686,
      "nawaz": 6687,
      "Mil": 6688,
      "jl": 6689,
      "champion": 6690,
      "invi": 6691,
      "barak": 6692,
      "highest": 6693,
      "sort": 6694,
      "dark": 6695,
      "51": 6696,
      "diot": 6697,
      "third": 6698,
      "bull": 6699,
      "temper": 6700,
      "MP": 6701,
      "disgusting": 6702,
      "jaw": 6703,
      "jaya": 6704,
      "nonsense": 6705,
      "uses": 6706,
      "maafi": 6707,
      "race": 6708,
      "exist": 6709,
      "😑😑": 6710,
      "issi": 6711,
      "kyonki": 6712,
      "ore": 6713,
      "director": 6714,
      "dans": 6715,
      "auto": 6716,
      "ross": 6717,
      "below": 6718,
      "usa": 6719,
      "akshay": 6720,
      "engineer": 6721,
      "jabki": 6722,
      "😂😭": 6723,
      "hafte": 6724,
      "seh": 6725,
      "asure": 6726,
      "afri": 6727,
      "naukri": 6728,
      "diction": 6729,
      "Ben": 6730,
      "staff": 6731,
      "treatment": 6732,
      "obser": 6733,
      "Only": 6734,
      "defen": 6735,
      "cuz": 6736,
      "glad": 6737,
      "Last": 6738,
      "advance": 6739,
      "balance": 6740,
      "expression": 6741,
      "09": 6742,
      "rising": 6743,
      "Nahin": 6744,
      "dium": 6745,
      "kali": 6746,
      "zaroori": 6747,
      "rahta": 6748,
      "farq": 6749,
      "profession": 6750,
      "property": 6751,
      "pahun": 6752,
      "abh": 6753,
      "inten": 6754,
      "sick": 6755,
      "parties": 6756,
      "maara": 6757,
      "moon": 6758,
      "six": 6759,
      "dobara": 6760,
      "awesome": 6761,
      "strike": 6762,
      "comparison": 6763,
      "bhee": 6764,
      "dor": 6765,
      "zza": 6766,
      "pir": 6767,
      "ungli": 6768,
      "shiva": 6769,
      "fami": 6770,
      "42": 6771,
      "Kitna": 6772,
      "Diya": 6773,
      "shaam": 6774,
      "influ": 6775,
      "ckets": 6776,
      "dict": 6777,
      "kv": 6778,
      "Shri": 6779,
      "discuss": 6780,
      "wake": 6781,
      "YouTube": 6782,
      "grade": 6783,
      "padhne": 6784,
      "trolling": 6785,
      "lagana": 6786,
      "arna": 6787,
      "2017": 6788,
      "inspir": 6789,
      "Kaha": 6790,
      "survi": 6791,
      "Sach": 6792,
      "kyaa": 6793,
      "faith": 6794,
      "bda": 6795,
      "kindly": 6796,
      "centre": 6797,
      "sarkaar": 6798,
      "intelli": 6799,
      "died": 6800,
      "platform": 6801,
      "sochta": 6802,
      "PO": 6803,
      "indgi": 6804,
      "tough": 6805,
      "viro": 6806,
      "marte": 6807,
      "dow": 6808,
      "guest": 6809,
      "inning": 6810,
      "lagao": 6811,
      "sapna": 6812,
      "driver": 6813,
      "rkha": 6814,
      "olympic": 6815,
      "cher": 6816,
      "indepen": 6817,
      "2018": 6818,
      "Any": 6819,
      "sacri": 6820,
      "machine": 6821,
      "premi": 6822,
      "padegi": 6823,
      "ncb": 6824,
      "hokar": 6825,
      "Minister": 6826,
      "dedic": 6827,
      "?????": 6828,
      "chief": 6829,
      "bun": 6830,
      "core": 6831,
      "Sikh": 6832,
      "convert": 6833,
      "mos": 6834,
      "pradesh": 6835,
      "dukhi": 6836,
      "🇮🇳🇮🇳": 6837,
      "mary": 6838,
      "sens": 6839,
      "training": 6840,
      "cous": 6841,
      "classes": 6842,
      "noon": 6843,
      "niti": 6844,
      "jakar": 6845,
      "milar": 6846,
      "53": 6847,
      "artist": 6848,
      "hogaye": 6849,
      "admin": 6850,
      "connect": 6851,
      "org": 6852,
      "toss": 6853,
      "delivery": 6854,
      "Birthday": 6855,
      "jio": 6856,
      "🙈🙈": 6857,
      "dhoka": 6858,
      "ckers": 6859,
      "bear": 6860,
      "tired": 6861,
      "bowler": 6862,
      "Jis": 6863,
      "anymore": 6864,
      "bia": 6865,
      "narrative": 6866,
      "teachers": 6867,
      "kill": 6868,
      "hypocrisy": 6869,
      "shor": 6870,
      "sibility": 6871,
      "🤭🤭": 6872,
      "farm": 6873,
      "Mon": 6874,
      "killing": 6875,
      "bhakti": 6876,
      "stress": 6877,
      "ela": 6878,
      "howa": 6879,
      "87": 6880,
      "requi": 6881,
      "lane": 6882,
      "kabir": 6883,
      "beyon": 6884,
      "retire": 6885,
      "rajp": 6886,
      "lare": 6887,
      "rahoge": 6888,
      "kahte": 6889,
      "natural": 6890,
      "MAN": 6891,
      "Aj": 6892,
      "healthy": 6893,
      "))": 6894,
      "quite": 6895,
      "deci": 6896,
      "laughing": 6897,
      "ware": 6898,
      "shara": 6899,
      "doll": 6900,
      "Ta": 6901,
      "sunna": 6902,
      "fault": 6903,
      "salam": 6904,
      "MC": 6905,
      "ive": 6906,
      "tea": 6907,
      "janti": 6908,
      "currently": 6909,
      "moments": 6910,
      "mae": 6911,
      "fanta": 6912,
      "Pap": 6913,
      "Wah": 6914,
      "yang": 6915,
      "Pat": 6916,
      "calls": 6917,
      "campa": 6918,
      "akh": 6919,
      "lack": 6920,
      "confused": 6921,
      "alg": 6922,
      "China": 6923,
      "tujhse": 6924,
      "koun": 6925,
      "engagement": 6926,
      "57": 6927,
      "jali": 6928,
      "center": 6929,
      "dab": 6930,
      "honestly": 6931,
      "pool": 6932,
      "lok": 6933,
      "argument": 6934,
      "zameen": 6935,
      "scrip": 6936,
      "fla": 6937,
      "sport": 6938,
      "album": 6939,
      "hass": 6940,
      "wave": 6941,
      "Ga": 6942,
      "fits": 6943,
      "khas": 6944,
      "mv": 6945,
      "pct": 6946,
      "info": 6947,
      "evict": 6948,
      "People": 6949,
      "difficult": 6950,
      "Ramp": 6951,
      "pus": 6952,
      "AP": 6953,
      "doon": 6954,
      "parliament": 6955,
      "mirchi": 6956,
      "oom": 6957,
      "wickets": 6958,
      "imple": 6959,
      "epi": 6960,
      "improve": 6961,
      "jari": 6962,
      "icon": 6963,
      "vit": 6964,
      "pehly": 6965,
      "laat": 6966,
      "scare": 6967,
      "among": 6968,
      "dinner": 6969,
      "maze": 6970,
      "yog": 6971,
      "kaash": 6972,
      "Jaise": 6973,
      "VER": 6974,
      "pooja": 6975,
      "Pu": 6976,
      "feat": 6977,
      "radhe": 6978,
      "guide": 6979,
      "virodh": 6980,
      "psy": 6981,
      "temperature": 6982,
      "figu": 6983,
      "nasee": 6984,
      "nes": 6985,
      "ooo": 6986,
      "moi": 6987,
      "safar": 6988,
      "Es": 6989,
      "barabar": 6990,
      "actress": 6991,
      "ads": 6992,
      "worship": 6993,
      "bea": 6994,
      "sul": 6995,
      "gaana": 6996,
      "wadi": 6997,
      "haat": 6998,
      "cheeze": 6999,
      "rajput": 7000,
      "zer": 7001,
      "vic": 7002,
      "corrupt": 7003,
      "Star": 7004,
      "nikle": 7005,
      "regular": 7006,
      "paiso": 7007,
      "galt": 7008,
      "92": 7009,
      "sary": 7010,
      "kehti": 7011,
      "birth": 7012,
      "adhe": 7013,
      "conce": 7014,
      "72": 7015,
      "Lagta": 7016,
      "54": 7017,
      "jaante": 7018,
      "achanak": 7019,
      "NAHI": 7020,
      "jyda": 7021,
      "silent": 7022,
      "aware": 7023,
      "perman": 7024,
      "khus": 7025,
      "pant": 7026,
      "Chal": 7027,
      "Zinda": 7028,
      "IL": 7029,
      "Pakistani": 7030,
      "hary": 7031,
      "topi": 7032,
      "walk": 7033,
      "yanka": 7034,
      "🤗🤗": 7035,
      "94": 7036,
      "khilaaf": 7037,
      "lice": 7038,
      "devi": 7039,
      "necessary": 7040,
      "Baki": 7041,
      "rog": 7042,
      "bis": 7043,
      "qa": 7044,
      "declare": 7045,
      "listening": 7046,
      "RIAZ": 7047,
      "coffee": 7048,
      "letter": 7049,
      "menti": 7050,
      "london": 7051,
      "chris": 7052,
      "kir": 7053,
      "wari": 7054,
      "chemistry": 7055,
      "dreams": 7056,
      "pictures": 7057,
      "leadership": 7058,
      "idiot": 7059,
      "diesel": 7060,
      "anyway": 7061,
      "zadi": 7062,
      "neeti": 7063,
      "bologe": 7064,
      "serial": 7065,
      "First": 7066,
      "shing": 7067,
      "jldi": 7068,
      "Rampal": 7069,
      "forgot": 7070,
      "ruin": 7071,
      "conference": 7072,
      "bhare": 7073,
      "aacha": 7074,
      "ots": 7075,
      "nayi": 7076,
      "TL": 7077,
      "vm": 7078,
      "lelo": 7079,
      "interact": 7080,
      "dalit": 7081,
      "replace": 7082,
      "ggle": 7083,
      "parivar": 7084,
      "jokes": 7085,
      "neut": 7086,
      "mentor": 7087,
      "fateh": 7088,
      "Sat": 7089,
      "justify": 7090,
      "beyond": 7091,
      "Up": 7092,
      "cash": 7093,
      "comfor": 7094,
      "Very": 7095,
      "mard": 7096,
      "ONE": 7097,
      "Jay": 7098,
      "Fri": 7099,
      "ford": 7100,
      "mery": 7101,
      "remove": 7102,
      "Ah": 7103,
      "Gal": 7104,
      "Rashmi": 7105,
      "pattern": 7106,
      "management": 7107,
      "65": 7108,
      "Hone": 7109,
      "meant": 7110,
      "riz": 7111,
      "asar": 7112,
      "After": 7113,
      "eid": 7114,
      "category": 7115,
      "gale": 7116,
      "weir": 7117,
      "Che": 7118,
      "sasta": 7119,
      "digital": 7120,
      "kiska": 7121,
      "defam": 7122,
      "carry": 7123,
      "2C": 7124,
      "allu": 7125,
      "maths": 7126,
      "gadha": 7127,
      "drive": 7128,
      "matlb": 7129,
      "cheating": 7130,
      "♥♥": 7131,
      "criminal": 7132,
      "launch": 7133,
      "ena": 7134,
      "rupe": 7135,
      "similar": 7136,
      "utanki": 7137,
      "thinks": 7138,
      "lier": 7139,
      "salo": 7140,
      "paste": 7141,
      "tarha": 7142,
      "natak": 7143,
      "😎😎": 7144,
      "batsman": 7145,
      "yea": 7146,
      "thu": 7147,
      "numbers": 7148,
      "Raat": 7149,
      "Pak": 7150,
      "surprise": 7151,
      "masti": 7152,
      "haven": 7153,
      "PS": 7154,
      "shad": 7155,
      "individual": 7156,
      "oye": 7157,
      "sameer": 7158,
      "🔥🔥🔥": 7159,
      "certain": 7160,
      "kitchen": 7161,
      "OT": 7162,
      "True": 7163,
      "naseeb": 7164,
      "sea": 7165,
      "dash": 7166,
      "none": 7167,
      "macy": 7168,
      "oppo": 7169,
      "hrs": 7170,
      "failed": 7171,
      "ander": 7172,
      "akable": 7173,
      "nanak": 7174,
      "budd": 7175,
      "useless": 7176,
      "shift": 7177,
      "jaunga": 7178,
      "select": 7179,
      "chachi": 7180,
      "dikhai": 7181,
      "ganga": 7182,
      "keen": 7183,
      "loving": 7184,
      "lambi": 7185,
      "Sal": 7186,
      "visi": 7187,
      "manta": 7188,
      "partment": 7189,
      "veri": 7190,
      "tournament": 7191,
      "WA": 7192,
      "fortun": 7193,
      "jeene": 7194,
      "memo": 7195,
      "permanent": 7196,
      "behaviour": 7197,
      "hik": 7198,
      "kang": 7199,
      "kamal": 7200,
      "puja": 7201,
      "dhyaan": 7202,
      "Kia": 7203,
      "courage": 7204,
      "jobs": 7205,
      "Pi": 7206,
      "permission": 7207,
      "3C": 7208,
      "exis": 7209,
      "asing": 7210,
      "Logo": 7211,
      "circle": 7212,
      "humanity": 7213,
      "hood": 7214,
      "finan": 7215,
      "badhiya": 7216,
      "karaar": 7217,
      "dn": 7218,
      "sunte": 7219,
      "ade": 7220,
      "breaking": 7221,
      "compe": 7222,
      "fait": 7223,
      "Bollywood": 7224,
      "hojata": 7225,
      "🥰🥰": 7226,
      "tf": 7227,
      "disrespect": 7228,
      "batane": 7229,
      "Yaha": 7230,
      "seats": 7231,
      "breakable": 7232,
      "😭😭😭😭😭😭😭😭": 7233,
      "romantic": 7234,
      "dekhkar": 7235,
      "kun": 7236,
      "regre": 7237,
      "bachane": 7238,
      "banke": 7239,
      "basis": 7240,
      "sadi": 7241,
      "koe": 7242,
      "replies": 7243,
      "ination": 7244,
      "vaha": 7245,
      "tut": 7246,
      "aakhir": 7247,
      "hongi": 7248,
      "cop": 7249,
      "inclu": 7250,
      "aaja": 7251,
      "Bang": 7252,
      "draw": 7253,
      "aani": 7254,
      "unbreakable": 7255,
      "laye": 7256,
      "ulti": 7257,
      "upper": 7258,
      "street": 7259,
      "isnt": 7260,
      "chase": 7261,
      "llow": 7262,
      "strength": 7263,
      "🙏🏻🙏🏻": 7264,
      "1C": 7265,
      "ops": 7266,
      "theat": 7267,
      "kadam": 7268,
      "gawar": 7269,
      "sanat": 7270,
      "tify": 7271,
      "village": 7272,
      "krishna": 7273,
      "lunga": 7274,
      "zealand": 7275,
      "ladkiya": 7276,
      "badle": 7277,
      "ras": 7278,
      "lord": 7279,
      "Cho": 7280,
      "sachi": 7281,
      "bsurat": 7282,
      "across": 7283,
      "abu": 7284,
      "mula": 7285,
      "squad": 7286,
      "gaddar": 7287,
      "mla": 7288,
      "wha": 7289,
      "opportunity": 7290,
      "vous": 7291,
      "uel": 7292,
      "nikaal": 7293,
      "reveal": 7294,
      "realise": 7295,
      "nov": 7296,
      "skin": 7297,
      "dekhenge": 7298,
      "stars": 7299,
      "71": 7300,
      "Kat": 7301,
      "Best": 7302,
      "82": 7303,
      "booster": 7304,
      "Au": 7305,
      "wrna": 7306,
      "akhilesh": 7307,
      "admission": 7308,
      "saas": 7309,
      "AC": 7310,
      "kroge": 7311,
      "Itne": 7312,
      "influence": 7313,
      "boun": 7314,
      "senior": 7315,
      "jinhone": 7316,
      "vida": 7317,
      "hojaye": 7318,
      "kesh": 7319,
      "Bat": 7320,
      "shetty": 7321,
      "purani": 7322,
      "tarif": 7323,
      "latest": 7324,
      "Then": 7325,
      "suic": 7326,
      "pehele": 7327,
      "choro": 7328,
      "gana": 7329,
      "Om": 7330,
      "personally": 7331,
      "Apna": 7332,
      "aman": 7333,
      "accident": 7334,
      "Govt": 7335,
      "Tweet": 7336,
      "Fin": 7337,
      "effect": 7338,
      "mudde": 7339,
      "sl": 7340,
      "UE": 7341,
      "Hope": 7342,
      "gau": 7343,
      "town": 7344,
      "deca": 7345,
      "jau": 7346,
      "deserving": 7347,
      "Hara": 7348,
      "crazy": 7349,
      "sundar": 7350,
      "Unke": 7351,
      "falling": 7352,
      "setting": 7353,
      "khai": 7354,
      "drug": 7355,
      "xygen": 7356,
      "begin": 7357,
      "0mm": 7358,
      "akki": 7359,
      "stadium": 7360,
      "aus": 7361,
      "karachi": 7362,
      "PL": 7363,
      "yor": 7364,
      "shiv": 7365,
      "club": 7366,
      "liked": 7367,
      "nikalo": 7368,
      "Agr": 7369,
      "kisaan": 7370,
      "kiu": 7371,
      "0000": 7372,
      "👍🏻": 7373,
      "parta": 7374,
      "sunta": 7375,
      "concert": 7376,
      "chuti": 7377,
      "importance": 7378,
      "LOVE": 7379,
      "karun": 7380,
      "Mam": 7381,
      "kriya": 7382,
      "asal": 7383,
      "wd": 7384,
      "Abey": 7385,
      "amit": 7386,
      "fees": 7387,
      "dekhlo": 7388,
      "😄😄": 7389,
      "ammi": 7390,
      "capital": 7391,
      "represent": 7392,
      "ckey": 7393,
      "salvation": 7394,
      "colour": 7395,
      "forts": 7396,
      "nishu": 7397,
      "kaunsa": 7398,
      "irritating": 7399,
      "woke": 7400,
      "goal": 7401,
      "kick": 7402,
      "tick": 7403,
      "beauty": 7404,
      "vaccinated": 7405,
      "billion": 7406,
      "8C": 7407,
      "nehru": 7408,
      "cker": 7409,
      "bheek": 7410,
      "walay": 7411,
      "cook": 7412,
      "mentioned": 7413,
      "hindutva": 7414,
      "equ": 7415,
      "hypocri": 7416,
      "waly": 7417,
      "lak": 7418,
      "Congrat": 7419,
      "Lad": 7420,
      "chodo": 7421,
      "offen": 7422,
      "mut": 7423,
      "shes": 7424,
      "Isliye": 7425,
      "oil": 7426,
      "title": 7427,
      "nautanki": 7428,
      "posts": 7429,
      "dikhte": 7430,
      "jeena": 7431,
      "uma": 7432,
      "bby": 7433,
      "relax": 7434,
      "supporters": 7435,
      "campaign": 7436,
      "dekar": 7437,
      "itself": 7438,
      "spin": 7439,
      "became": 7440,
      "arm": 7441,
      "77": 7442,
      "distan": 7443,
      "pot": 7444,
      "azam": 7445,
      "color": 7446,
      "ghalat": 7447,
      "compani": 7448,
      "dera": 7449,
      "89": 7450,
      "constitution": 7451,
      "adat": 7452,
      "admit": 7453,
      "posted": 7454,
      "taaki": 7455,
      "fresh": 7456,
      "dheere": 7457,
      "nikl": 7458,
      "usive": 7459,
      "hotay": 7460,
      "whats": 7461,
      "RT": 7462,
      "OP": 7463,
      "🚩🚩": 7464,
      "politician": 7465,
      "🥲🥲": 7466,
      "ried": 7467,
      "tiger": 7468,
      "4th": 7469,
      "Maa": 7470,
      "concept": 7471,
      "projects": 7472,
      "evidence": 7473,
      "couldn": 7474,
      "Fol": 7475,
      "valid": 7476,
      "counter": 7477,
      "banti": 7478,
      "aker": 7479,
      "Bu": 7480,
      "adh": 7481,
      "signment": 7482,
      "avoid": 7483,
      "rasta": 7484,
      "blah": 7485,
      "PRATI": 7486,
      "standing": 7487,
      "kak": 7488,
      "november": 7489,
      "hmari": 7490,
      "🤣😂": 7491,
      "Hy": 7492,
      "payenge": 7493,
      "roke": 7494,
      "standard": 7495,
      "4C": 7496,
      "😢😢": 7497,
      "bahir": 7498,
      "truly": 7499,
      "pandemic": 7500,
      "straight": 7501,
      "Sara": 7502,
      "yarr": 7503,
      "strategy": 7504,
      "tarike": 7505,
      "mubarak": 7506,
      "kardi": 7507,
      "Saare": 7508,
      "turned": 7509,
      "shivi": 7510,
      "cos": 7511,
      "east": 7512,
      "rakhta": 7513,
      "aankh": 7514,
      "mentality": 7515,
      "gym": 7516,
      "6C": 7517,
      "gaa": 7518,
      "PRATIK": 7519,
      "tweeter": 7520,
      "romance": 7521,
      "🥺❤": 7522,
      "vacancy": 7523,
      "efforts": 7524,
      "maloom": 7525,
      "remo": 7526,
      "lagata": 7527,
      "karva": 7528,
      "proved": 7529,
      "zim": 7530,
      "bies": 7531,
      "khara": 7532,
      "Yahi": 7533,
      "66": 7534,
      "Mer": 7535,
      "memorable": 7536,
      "bje": 7537,
      "rude": 7538,
      "jain": 7539,
      "Hindi": 7540,
      "doosre": 7541,
      "mort": 7542,
      "hetic": 7543,
      "//": 7544,
      "hoy": 7545,
      "bb13": 7546,
      "belongs": 7547,
      "bala": 7548,
      "7C": 7549,
      "holiday": 7550,
      "tive": 7551,
      "teaser": 7552,
      "Whi": 7553,
      "hatred": 7554,
      "jes": 7555,
      "kisano": 7556,
      "nagar": 7557,
      "winter": 7558,
      "pizza": 7559,
      "huaa": 7560,
      "transfer": 7561,
      "guaran": 7562,
      "VIP": 7563,
      "❤❤❤": 7564,
      "91": 7565,
      "fare": 7566,
      "hoa": 7567,
      "flag": 7568,
      "pon": 7569,
      "anyways": 7570,
      "anni": 7571,
      "matt": 7572,
      "chip": 7573,
      "9C": 7574,
      "exchange": 7575,
      "expected": 7576,
      "KHAN": 7577,
      "breakup": 7578,
      "ghoom": 7579,
      "daughter": 7580,
      "khelo": 7581,
      "extreme": 7582,
      "khaas": 7583,
      "agli": 7584,
      "dalal": 7585,
      "speaking": 7586,
      "Naam": 7587,
      "gat": 7588,
      "MU": 7589,
      "tameez": 7590,
      "🙏🏼": 7591,
      "baaz": 7592,
      "pire": 7593,
      "purpose": 7594,
      "firse": 7595,
      "kiski": 7596,
      "unhi": 7597,
      "arent": 7598,
      "More": 7599,
      "balki": 7600,
      "defaming": 7601,
      "sec": 7602,
      "speci": 7603,
      "Madam": 7604,
      "Shame": 7605,
      "ERS": 7606,
      "💕💕": 7607,
      "aankhe": 7608,
      "kno": 7609,
      "isation": 7610,
      "percent": 7611,
      "angry": 7612,
      "ero": 7613,
      "maintain": 7614,
      "Guys": 7615,
      "pahuch": 7616,
      "Wow": 7617,
      "bhagwaan": 7618,
      "ented": 7619,
      "football": 7620,
      "bulaya": 7621,
      "khata": 7622,
      "majbo": 7623,
      "baan": 7624,
      "Ur": 7625,
      "hoi": 7626,
      "mited": 7627,
      "sind": 7628,
      "jeetna": 7629,
      "accep": 7630,
      "Indi": 7631,
      "Usko": 7632,
      "😤😤": 7633,
      "ksha": 7634,
      "docu": 7635,
      "vices": 7636,
      "sunny": 7637,
      "pehen": 7638,
      "vent": 7639,
      "wide": 7640,
      "sacrifi": 7641,
      "suicide": 7642,
      "khrab": 7643,
      "arri": 7644,
      "Prime": 7645,
      "miri": 7646,
      "josh": 7647,
      "badnaam": 7648,
      "See": 7649,
      "redu": 7650,
      "ispe": 7651,
      "sia": 7652,
      "fixed": 7653,
      "Tab": 7654,
      "unn": 7655,
      "respected": 7656,
      "nhii": 7657,
      "parh": 7658,
      "bnaya": 7659,
      "loud": 7660,
      "scared": 7661,
      "inshallah": 7662,
      "bali": 7663,
      "techno": 7664,
      "paar": 7665,
      "Hindus": 7666,
      "baqi": 7667,
      "four": 7668,
      "cc": 7669,
      "Sant": 7670,
      "drag": 7671,
      "editing": 7672,
      "apan": 7673,
      "maharashtra": 7674,
      "calm": 7675,
      "bhejo": 7676,
      "universe": 7677,
      "yours": 7678,
      "covid": 7679,
      "oxygen": 7680,
      "HAR": 7681,
      "confe": 7682,
      "solos": 7683,
      "jhumar": 7684,
      "pact": 7685,
      "Kk": 7686,
      "rise": 7687,
      "dikhti": 7688,
      "ignor": 7689,
      "moder": 7690,
      "threat": 7691,
      "immedi": 7692,
      "nikalne": 7693,
      "sony": 7694,
      "jhut": 7695,
      "participate": 7696,
      "faila": 7697,
      "rashi": 7698,
      "Sarkar": 7699,
      "lein": 7700,
      "america": 7701,
      "merko": 7702,
      "lagaye": 7703,
      "kashi": 7704,
      "nibha": 7705,
      "weird": 7706,
      "paaye": 7707,
      "marta": 7708,
      "toda": 7709,
      "Life": 7710,
      "lovely": 7711,
      "femin": 7712,
      "shed": 7713,
      "apnay": 7714,
      "kisine": 7715,
      "rele": 7716,
      "equal": 7717,
      "expert": 7718,
      "awaaz": 7719,
      "padti": 7720,
      "website": 7721,
      "congrats": 7722,
      "tonight": 7723,
      "Rakhi": 7724,
      "adar": 7725,
      "wins": 7726,
      "phool": 7727,
      "lunch": 7728,
      "chaa": 7729,
      "Din": 7730,
      "FIR": 7731,
      "burai": 7732,
      "comfortable": 7733,
      ".?": 7734,
      "Sou": 7735,
      "sessed": 7736,
      "boyfriend": 7737,
      "trip": 7738,
      "***": 7739,
      "wk": 7740,
      "everyday": 7741,
      "chij": 7742,
      "Hey": 7743,
      "kahenge": 7744,
      "yas": 7745,
      "likho": 7746,
      "Hello": 7747,
      "🤧🤧": 7748,
      "created": 7749,
      "kg": 7750,
      "!!!!!": 7751,
      "UT": 7752,
      "wage": 7753,
      "xd": 7754,
      "intention": 7755,
      "praise": 7756,
      "aakar": 7757,
      "Boss": 7758,
      "shahrukh": 7759,
      "excel": 7760,
      "milke": 7761,
      "bour": 7762,
      "joining": 7763,
      "chair": 7764,
      "ually": 7765,
      "reasons": 7766,
      "snake": 7767,
      "CK": 7768,
      "guil": 7769,
      "plot": 7770,
      "ain": 7771,
      "jama": 7772,
      "chocol": 7773,
      "heav": 7774,
      "dhoon": 7775,
      "manipul": 7776,
      "lecture": 7777,
      "Gha": 7778,
      "jindagi": 7779,
      "companies": 7780,
      "likhte": 7781,
      "goa": 7782,
      "idio": 7783,
      "khareed": 7784,
      "throw": 7785,
      "talks": 7786,
      "lif": 7787,
      "apart": 7788,
      "laugh": 7789,
      "UL": 7790,
      "Gan": 7791,
      "lagate": 7792,
      "essay": 7793,
      "janab": 7794,
      "dunya": 7795,
      "fle": 7796,
      "raise": 7797,
      ",,,,": 7798,
      "gaz": 7799,
      "shoo": 7800,
      "ameen": 7801,
      "lgti": 7802,
      "dain": 7803,
      "leads": 7804,
      "nag": 7805,
      "shabd": 7806,
      "store": 7807,
      "gate": 7808,
      "institu": 7809,
      "workers": 7810,
      "global": 7811,
      "torture": 7812,
      "ending": 7813,
      "Have": 7814,
      "whom": 7815,
      "trading": 7816,
      "shant": 7817,
      "previous": 7818,
      "build": 7819,
      "chances": 7820,
      "refund": 7821,
      "attemp": 7822,
      "struggle": 7823,
      "crackers": 7824,
      "hogayi": 7825,
      "comme": 7826,
      "aniyat": 7827,
      "suggestion": 7828,
      "hamne": 7829,
      "👌👌": 7830,
      "whenever": 7831,
      "aq": 7832,
      "keya": 7833,
      "weight": 7834,
      "schools": 7835,
      "failure": 7836,
      "recently": 7837,
      "ships": 7838,
      "harassing": 7839,
      "obc": 7840,
      "uf": 7841,
      "kissi": 7842,
      "humble": 7843,
      "5C": 7844,
      "pk": 7845,
      "suddenly": 7846,
      "gee": 7847,
      "pado": 7848,
      "quick": 7849,
      "girlfriend": 7850,
      "ARE": 7851,
      "lio": 7852,
      "roads": 7853,
      "department": 7854,
      "holy": 7855,
      "Ameri": 7856,
      "banata": 7857,
      "benefit": 7858,
      "cana": 7859,
      "laptop": 7860,
      "yment": 7861,
      "depression": 7862,
      "ladkiyo": 7863,
      "sikhaya": 7864,
      "jodi": 7865,
      "flight": 7866,
      "😃😃": 7867,
      "mouth": 7868,
      "huya": 7869,
      "banake": 7870,
      "skip": 7871,
      "likhi": 7872,
      "bind": 7873,
      "pride": 7874,
      "lle": 7875,
      "masha": 7876,
      "qki": 7877,
      "ghter": 7878,
      "Isko": 7879,
      "PE": 7880,
      "motivate": 7881,
      "shai": 7882,
      "hta": 7883,
      "69": 7884,
      "secularism": 7885,
      "selfish": 7886,
      "bahi": 7887,
      "metro": 7888,
      "punjabi": 7889,
      "udd": 7890,
      "announcement": 7891,
      "shams": 7892,
      "zaruri": 7893,
      "Inko": 7894,
      "yess": 7895,
      "yakeen": 7896,
      "With": 7897,
      "rhega": 7898,
      "lower": 7899,
      "ire": 7900,
      "asse": 7901,
      "tim": 7902,
      "abdul": 7903,
      "hadi": 7904,
      "Sho": 7905,
      "tok": 7906,
      "bann": 7907,
      "hmara": 7908,
      "khaa": 7909,
      "itish": 7910,
      "urday": 7911,
      "athi": 7912,
      "harkat": 7913,
      "thankyou": 7914,
      "spelling": 7915,
      "sitting": 7916,
      "shani": 7917,
      "senti": 7918,
      "hockey": 7919,
      "cream": 7920,
      "hale": 7921,
      "Look": 7922,
      "FOR": 7923,
      "chinese": 7924,
      "aleel": 7925,
      "kach": 7926,
      "neutral": 7927,
      "expectations": 7928,
      "😭😭😭😭😭": 7929,
      "ij": 7930,
      "opposite": 7931,
      "scheme": 7932,
      "odi": 7933,
      "hak": 7934,
      "stopped": 7935,
      "bahan": 7936,
      "😩😩": 7937,
      "selling": 7938,
      "emer": 7939,
      "tani": 7940,
      "remind": 7941,
      "blast": 7942,
      "yall": 7943,
      "vese": 7944,
      "kinda": 7945,
      "attra": 7946,
      "limited": 7947,
      "bigboss": 7948,
      "lama": 7949,
      "gender": 7950,
      "fing": 7951,
      "decided": 7952,
      "EK": 7953,
      "afsana": 7954,
      "RSS": 7955,
      "ster": 7956,
      "rac": 7957,
      "bottom": 7958,
      "histo": 7959,
      "concern": 7960,
      "sabne": 7961,
      "arrange": 7962,
      "59": 7963,
      "kush": 7964,
      "honey": 7965,
      "padhna": 7966,
      "tout": 7967,
      "dunia": 7968,
      "dikhaye": 7969,
      "ysis": 7970,
      "karege": 7971,
      "illegal": 7972,
      "swear": 7973,
      "cmo": 7974,
      "itional": 7975,
      "aaram": 7976,
      "tabi": 7977,
      "assignment": 7978,
      "trh": 7979,
      "obsessed": 7980,
      "sanghi": 7981,
      "christi": 7982,
      "kripya": 7983,
      "58": 7984,
      "vaccination": 7985,
      "effort": 7986,
      "names": 7987,
      "agal": 7988,
      "giri": 7989,
      "bethe": 7990,
      "ption": 7991,
      "responsibility": 7992,
      "gaar": 7993,
      "nakli": 7994,
      "naraz": 7995,
      "puchna": 7996,
      "sawaal": 7997,
      "sexy": 7998,
      "iphone": 7999,
      "recharge": 8000,
      "LY": 8001,
      "kewal": 8002,
      "ladko": 8003,
      "wonderful": 8004,
      "whether": 8005,
      "punish": 8006,
      "roop": 8007,
      "sena": 8008,
      "design": 8009,
      "😡😡😡😡": 8010,
      "background": 8011,
      "kidhar": 8012,
      "brought": 8013,
      "shameless": 8014,
      "Dear": 8015,
      "Shu": 8016,
      "doston": 8017,
      "intezar": 8018,
      "khans": 8019,
      "gli": 8020,
      "warrior": 8021,
      "jabar": 8022,
      "worse": 8023,
      "knowing": 8024,
      "katrina": 8025,
      "minority": 8026,
      "Ky": 8027,
      "jinhe": 8028,
      "heli": 8029,
      "powerful": 8030,
      "chez": 8031,
      "Raja": 8032,
      "friday": 8033,
      "Bad": 8034,
      "Badi": 8035,
      "condu": 8036,
      "khalis": 8037,
      "rani": 8038,
      "😳😳": 8039,
      "raksha": 8040,
      "earn": 8041,
      "usand": 8042,
      "tex": 8043,
      "rhta": 8044,
      "everywhere": 8045,
      "bee": 8046,
      "aram": 8047,
      "Because": 8048,
      "raste": 8049,
      "rock": 8050,
      "vichar": 8051,
      "kren": 8052,
      "oooo": 8053,
      "publicity": 8054,
      "valo": 8055,
      "zabar": 8056,
      "kept": 8057,
      "manager": 8058,
      "seem": 8059,
      "dubara": 8060,
      "Mumbai": 8061,
      "ification": 8062,
      "golden": 8063,
      "cringe": 8064,
      "domin": 8065,
      "pariwar": 8066,
      "conveni": 8067,
      "bhaga": 8068,
      "hid": 8069,
      "Gur": 8070,
      "iya": 8071,
      "rin": 8072,
      "Plz": 8073,
      "millions": 8074,
      "Sb": 8075,
      "naag": 8076,
      "size": 8077,
      "tickets": 8078,
      "aamir": 8079,
      "blocked": 8080,
      "sharing": 8081,
      "bolegi": 8082,
      "simply": 8083,
      "lights": 8084,
      "DS": 8085,
      "istic": 8086,
      "tight": 8087,
      "badnam": 8088,
      "aay": 8089,
      "Liye": 8090,
      "chit": 8091,
      "ameer": 8092,
      "excuse": 8093,
      "atar": 8094,
      "Zindagi": 8095,
      "sma": 8096,
      "Real": 8097,
      "author": 8098,
      "schedu": 8099,
      "traffic": 8100,
      "candidate": 8101,
      "soli": 8102,
      "divor": 8103,
      "sah": 8104,
      "😠😠": 8105,
      "baaton": 8106,
      "Wat": 8107,
      "CHA": 8108,
      "MY": 8109,
      "Sup": 8110,
      "tad": 8111,
      "lata": 8112,
      "batein": 8113,
      "hall": 8114,
      "rance": 8115,
      "jaayenge": 8116,
      "unique": 8117,
      "gadi": 8118,
      "multiple": 8119,
      "...?": 8120,
      "demands": 8121,
      "chaye": 8122,
      "juda": 8123,
      "kapoor": 8124,
      "paap": 8125,
      "Hume": 8126,
      "tbhi": 8127,
      "anuj": 8128,
      "Kap": 8129,
      "laun": 8130,
      "Dono": 8131,
      "index": 8132,
      "directly": 8133,
      "united": 8134,
      "Jb": 8135,
      "growth": 8136,
      "impact": 8137,
      "haryana": 8138,
      "bachhe": 8139,
      "activ": 8140,
      "faisla": 8141,
      "btaya": 8142,
      "chle": 8143,
      "Bina": 8144,
      "raas": 8145,
      "flix": 8146,
      "jani": 8147,
      "78": 8148,
      "trends": 8149,
      "swi": 8150,
      "Muslims": 8151,
      "lahore": 8152,
      "dered": 8153,
      "poten": 8154,
      "shopping": 8155,
      "Insta": 8156,
      "celebration": 8157,
      "WAL": 8158,
      "sky": 8159,
      "hang": 8160,
      "iq": 8161,
      "vishwas": 8162,
      "700": 8163,
      "stick": 8164,
      "district": 8165,
      "plans": 8166,
      "dalo": 8167,
      "Beta": 8168,
      "pack": 8169,
      "Wahi": 8170,
      "contribu": 8171,
      "unders": 8172,
      "jayada": 8173,
      "🤣🤣🤣🤣🤣": 8174,
      "afternoon": 8175,
      "trover": 8176,
      "hypen": 8177,
      "phase": 8178,
      "CT": 8179,
      "roll": 8180,
      "flip": 8181,
      "iting": 8182,
      "tereko": 8183,
      "selection": 8184,
      "pathetic": 8185,
      "reject": 8186,
      "Our": 8187,
      "loon": 8188,
      "judi": 8189,
      "''": 8190,
      "minor": 8191,
      "manga": 8192,
      "singing": 8193,
      "ladkiyon": 8194,
      "investment": 8195,
      "vage": 8196,
      "Lu": 8197,
      "rank": 8198,
      "enhypen": 8199,
      "Dekho": 8200,
      "monday": 8201,
      "Cap": 8202,
      "cia": 8203,
      "2016": 8204,
      "confusion": 8205,
      "inc": 8206,
      "jod": 8207,
      "ulm": 8208,
      "hPa": 8209,
      "Aree": 8210,
      "feature": 8211,
      "lover": 8212,
      "----": 8213,
      "AB": 8214,
      "alla": 8215,
      "®®®®®": 8216,
      "pakda": 8217,
      "structure": 8218,
      "Isi": 8219,
      "john": 8220,
      "Fo": 8221,
      "bigger": 8222,
      "taar": 8223,
      "pher": 8224,
      "lgi": 8225,
      "janu": 8226,
      "8c": 8227,
      "heed": 8228,
      "families": 8229,
      "Sol": 8230,
      "Col": 8231,
      "behn": 8232,
      "owaisi": 8233,
      "elimin": 8234,
      "DIL": 8235,
      "By": 8236,
      "TR": 8237,
      "zone": 8238,
      "baato": 8239,
      "Mene": 8240,
      "intezaar": 8241,
      "rajniti": 8242,
      "sakh": 8243,
      "-&": 8244,
      "chehra": 8245,
      "laa": 8246,
      "portra": 8247,
      "Afghan": 8248,
      "dukan": 8249,
      "services": 8250,
      "jhel": 8251,
      "FA": 8252,
      "saman": 8253,
      "talented": 8254,
      "material": 8255,
      "antly": 8256,
      "rashid": 8257,
      "Ran": 8258,
      "terri": 8259,
      "impossible": 8260,
      "EW": 8261,
      "bijli": 8262,
      "khusi": 8263,
      "nir": 8264,
      "islamic": 8265,
      "horaha": 8266,
      "sources": 8267,
      "marketing": 8268,
      "crash": 8269,
      "ega": 8270,
      "jankari": 8271,
      "supremacy": 8272,
      "pitch": 8273,
      "tata": 8274,
      "paoge": 8275,
      "mach": 8276,
      "mujha": 8277,
      "puche": 8278,
      "subject": 8279,
      "NI": 8280,
      "earlier": 8281,
      "vant": 8282,
      "vul": 8283,
      "aaaa": 8284,
      "gak": 8285,
      "afsos": 8286,
      "fixing": 8287,
      "specific": 8288,
      "regret": 8289,
      "prices": 8290,
      "rated": 8291,
      "ohhh": 8292,
      "karain": 8293,
      "News": 8294,
      "thousand": 8295,
      "waj": 8296,
      "youn": 8297,
      "patience": 8298,
      "dat": 8299,
      "howe": 8300,
      "Police": 8301,
      "suni": 8302,
      "THA": 8303,
      "Aapko": 8304,
      "versary": 8305,
      "aor": 8306,
      "butter": 8307,
      "distur": 8308,
      "cp": 8309,
      "indirect": 8310,
      "soor": 8311,
      "khao": 8312,
      "mujhko": 8313,
      "rupees": 8314,
      "shine": 8315,
      "lekr": 8316,
      "WIT": 8317,
      "rea": 8318,
      "peak": 8319,
      "utni": 8320,
      "seas": 8321,
      "sikho": 8322,
      "Beech": 8323,
      "jannat": 8324,
      "tise": 8325,
      "khatre": 8326,
      "jita": 8327,
      "gaadi": 8328,
      "satis": 8329,
      "actions": 8330,
      "yung": 8331,
      "zee": 8332,
      "learning": 8333,
      "nath": 8334,
      "mour": 8335,
      "applic": 8336,
      "Kashmir": 8337,
      "prepare": 8338,
      "adha": 8339,
      "analysis": 8340,
      "aagaya": 8341,
      "apis": 8342,
      "dikhega": 8343,
      "roka": 8344,
      "hou": 8345,
      "union": 8346,
      "zarur": 8347,
      "vhi": 8348,
      "zyaada": 8349,
      "wishing": 8350,
      "educated": 8351,
      "ghat": 8352,
      "prem": 8353,
      "patri": 8354,
      "karane": 8355,
      "maya": 8356,
      "tika": 8357,
      "mange": 8358,
      "ishra": 8359,
      "bringing": 8360,
      "patient": 8361,
      "dhamki": 8362,
      "mill": 8363,
      "stone": 8364,
      "chur": 8365,
      "appear": 8366,
      "Exam": 8367,
      "tup": 8368,
      "Anu": 8369,
      "Bihar": 8370,
      "bashing": 8371,
      "Right": 8372,
      "adani": 8373,
      "dubai": 8374,
      "khudko": 8375,
      "Vic": 8376,
      "chupa": 8377,
      "trah": 8378,
      "smjha": 8379,
      "badhe": 8380,
      "disappointed": 8381,
      "🌹🌹": 8382,
      "Son": 8383,
      "contract": 8384,
      "stats": 8385,
      "These": 8386,
      "psycho": 8387,
      "maso": 8388,
      "'.": 8389,
      "tail": 8390,
      "upset": 8391,
      "🎉🎉": 8392,
      "bom": 8393,
      "Dis": 8394,
      "kesa": 8395,
      "pehchan": 8396,
      "toilet": 8397,
      "options": 8398,
      "aulad": 8399,
      "sanam": 8400,
      "organi": 8401,
      "Goo": 8402,
      "reci": 8403,
      "rer": 8404,
      "Iska": 8405,
      "Hamare": 8406,
      "nikalna": 8407,
      "Mor": 8408,
      "bardash": 8409,
      "ull": 8410,
      "sultan": 8411,
      "haye": 8412,
      "flat": 8413,
      "bapu": 8414,
      "passion": 8415,
      "🤬🤬": 8416,
      "Tumhare": 8417,
      "abbu": 8418,
      "pandit": 8419,
      "CI": 8420,
      "jawan": 8421,
      "Great": 8422,
      "controver": 8423,
      "baru": 8424,
      "ressed": 8425,
      "further": 8426,
      "namo": 8427,
      "ext": 8428,
      "daan": 8429,
      "jhag": 8430,
      "pdta": 8431,
      "inau": 8432,
      "mentally": 8433,
      "mandi": 8434,
      "lous": 8435,
      "pyari": 8436,
      "rare": 8437,
      "79": 8438,
      "sardi": 8439,
      "chhu": 8440,
      "geri": 8441,
      "ception": 8442,
      "technology": 8443,
      "cken": 8444,
      "struction": 8445,
      "Sad": 8446,
      "jum": 8447,
      "bitch": 8448,
      "🤷🏻": 8449,
      "nami": 8450,
      "bhad": 8451,
      "cloud": 8452,
      "konse": 8453,
      "ident": 8454,
      "bue": 8455,
      "chura": 8456,
      "llabus": 8457,
      "heavy": 8458,
      "aggressive": 8459,
      "ira": 8460,
      "SAB": 8461,
      "padho": 8462,
      "vapas": 8463,
      "memories": 8464,
      "kutti": 8465,
      "chalane": 8466,
      "confuse": 8467,
      "surge": 8468,
      "Get": 8469,
      "😭🤣": 8470,
      "Did": 8471,
      "gap": 8472,
      "context": 8473,
      "ladies": 8474,
      "chapp": 8475,
      "Chutiya": 8476,
      "ey": 8477,
      "singer": 8478,
      "Ut": 8479,
      "bnda": 8480,
      "Baa": 8481,
      "ordin": 8482,
      "rid": 8483,
      "presence": 8484,
      "😭❤": 8485,
      "ev": 8486,
      "hinduon": 8487,
      "73": 8488,
      "Krna": 8489,
      "lagegi": 8490,
      "Bhagwan": 8491,
      "ijjat": 8492,
      "involved": 8493,
      "inaugur": 8494,
      "pump": 8495,
      "citizens": 8496,
      "ideas": 8497,
      "Chahiye": 8498,
      "innings": 8499,
      "starts": 8500,
      "Day": 8501,
      "MI": 8502,
      "snap": 8503,
      "divide": 8504,
      "financial": 8505,
      "sain": 8506,
      "swee": 8507,
      "corpor": 8508,
      "10th": 8509,
      "supported": 8510,
      "finish": 8511,
      "forms": 8512,
      "uttar": 8513,
      "agent": 8514,
      "strongest": 8515,
      "inch": 8516,
      "KAB": 8517,
      "thap": 8518,
      "Bata": 8519,
      "vc": 8520,
      "sides": 8521,
      "explo": 8522,
      "affect": 8523,
      "ora": 8524,
      "pane": 8525,
      "worked": 8526,
      "cousin": 8527,
      "cutie": 8528,
      "unfortun": 8529,
      "realize": 8530,
      "bly": 8531,
      "email": 8532,
      "shooting": 8533,
      "channels": 8534,
      "location": 8535,
      "amma": 8536,
      "inj": 8537,
      "dharma": 8538,
      "kaand": 8539,
      "Mt": 8540,
      "moral": 8541,
      "broken": 8542,
      "nabi": 8543,
      "cloudy": 8544,
      "height": 8545,
      "usey": 8546,
      "badly": 8547,
      "lone": 8548,
      "dikhata": 8549,
      "patel": 8550,
      "nashe": 8551,
      "...!": 8552,
      "places": 8553,
      "march": 8554,
      "ability": 8555,
      "sector": 8556,
      "dusron": 8557,
      "employees": 8558,
      "khiladi": 8559,
      "esse": 8560,
      "pehlay": 8561,
      "zing": 8562,
      "bhaut": 8563,
      "buster": 8564,
      "SI": 8565,
      "sali": 8566,
      "garam": 8567,
      "74": 8568,
      "ummid": 8569,
      "Pyaar": 8570,
      "maari": 8571,
      "despite": 8572,
      "hosh": 8573,
      "9c": 8574,
      "tej": 8575,
      "hissa": 8576,
      "herself": 8577,
      "five": 8578,
      "hurts": 8579,
      "emotion": 8580,
      "rol": 8581,
      "rahne": 8582,
      "terrorists": 8583,
      "gala": 8584,
      "cove": 8585,
      "basically": 8586,
      "World": 8587,
      "ond": 8588,
      "GI": 8589,
      "nih": 8590,
      "araha": 8591,
      "hack": 8592,
      "stors": 8593,
      "tree": 8594,
      "😂.": 8595,
      "biryani": 8596,
      "witch": 8597,
      "superstar": 8598,
      "nawab": 8599,
      "convin": 8600,
      "Vis": 8601,
      "chalne": 8602,
      "karty": 8603,
      "hotel": 8604,
      "Kr": 8605,
      "hura": 8606,
      "sold": 8607,
      "ambani": 8608,
      "harkate": 8609,
      "turant": 8610,
      "yuva": 8611,
      "Lon": 8612,
      "bechari": 8613,
      "jesi": 8614,
      "nind": 8615,
      "DAY": 8616,
      "lynching": 8617,
      "pichhe": 8618,
      "assu": 8619,
      "baji": 8620,
      "tone": 8621,
      "jaanta": 8622,
      "commenting": 8623,
      "unless": 8624,
      "ando": 8625,
      "pok": 8626,
      "suar": 8627,
      "bran": 8628,
      "chalna": 8629,
      "brothers": 8630,
      "separ": 8631,
      "conditions": 8632,
      "reels": 8633,
      "anchor": 8634,
      "ladne": 8635,
      "bathroom": 8636,
      "1947": 8637,
      "fati": 8638,
      "rav": 8639,
      "relatives": 8640,
      "mato": 8641,
      "rajya": 8642,
      "fikar": 8643,
      "rag": 8644,
      "changes": 8645,
      "loose": 8646,
      "maana": 8647,
      "ghamand": 8648,
      "former": 8649,
      "yt": 8650,
      "trad": 8651,
      "7c": 8652,
      "azadi": 8653,
      "mantra": 8654,
      "idhr": 8655,
      "lade": 8656,
      "divorce": 8657,
      "hani": 8658,
      "serve": 8659,
      "bowlers": 8660,
      "salute": 8661,
      "bhoot": 8662,
      "raaz": 8663,
      "cares": 8664,
      "descri": 8665,
      "commend": 8666,
      "liance": 8667,
      "supposed": 8668,
      "kregi": 8669,
      "crores": 8670,
      "invite": 8671,
      "chehre": 8672,
      "OM": 8673,
      "sharif": 8674,
      "ends": 8675,
      "shout": 8676,
      "milit": 8677,
      "syllabus": 8678,
      "alive": 8679,
      "records": 8680,
      "rahna": 8681,
      "manu": 8682,
      "pala": 8683,
      "khule": 8684,
      "istration": 8685,
      "sung": 8686,
      "Has": 8687,
      "facebook": 8688,
      "kerna": 8689,
      "ED": 8690,
      "gujarat": 8691,
      "refu": 8692,
      "secon": 8693,
      "Nor": 8694,
      "Ju": 8695,
      "andha": 8696,
      "garden": 8697,
      "viron": 8698,
      "camp": 8699,
      "flation": 8700,
      "jaty": 8701,
      "hund": 8702,
      "identity": 8703,
      "pace": 8704,
      "released": 8705,
      "jungle": 8706,
      "jer": 8707,
      "Saala": 8708,
      "continu": 8709,
      "THI": 8710,
      "particular": 8711,
      "btana": 8712,
      "activate": 8713,
      "baarish": 8714,
      "tweeting": 8715,
      "KU": 8716,
      "kbi": 8717,
      "suffer": 8718,
      "UV": 8719,
      "existence": 8720,
      "investigation": 8721,
      "Most": 8722,
      "Pan": 8723,
      ".)": 8724,
      "Dec": 8725,
      "cting": 8726,
      "flow": 8727,
      "Free": 8728,
      "jinka": 8729,
      "50000": 8730,
      "defence": 8731,
      "dast": 8732,
      "ola": 8733,
      "ias": 8734,
      "nic": 8735,
      "Dont": 8736,
      "dali": 8737,
      "upon": 8738,
      "2c": 8739,
      "manife": 8740,
      "exe": 8741,
      "upr": 8742,
      "planned": 8743,
      "daba": 8744,
      "rhte": 8745,
      "nominate": 8746,
      "looked": 8747,
      "pol": 8748,
      "ilawa": 8749,
      "Guruji": 8750,
      "uv": 8751,
      "usual": 8752,
      "Isse": 8753,
      "chot": 8754,
      "ajay": 8755,
      "sequ": 8756,
      "maam": 8757,
      "caption": 8758,
      "characters": 8759,
      "anniversary": 8760,
      "Sana": 8761,
      "naak": 8762,
      "3c": 8763,
      "kadar": 8764,
      "chocolate": 8765,
      "dhanya": 8766,
      "boliye": 8767,
      "Hame": 8768,
      "urya": 8769,
      "Yr": 8770,
      "maje": 8771,
      "ICE": 8772,
      "joo": 8773,
      "everytime": 8774,
      "figure": 8775,
      "eur": 8776,
      "magic": 8777,
      "doob": 8778,
      "Usne": 8779,
      "calen": 8780,
      "leading": 8781,
      "potential": 8782,
      "wearing": 8783,
      "UK": 8784,
      "LF": 8785,
      "asif": 8786,
      "marry": 8787,
      "vili": 8788,
      "forces": 8789,
      "kharcha": 8790,
      "hide": 8791,
      "5000": 8792,
      "bahana": 8793,
      "dirty": 8794,
      "papers": 8795,
      "sounds": 8796,
      "chilla": 8797,
      "gusse": 8798,
      "Baru": 8799,
      "chappal": 8800,
      "suspen": 8801,
      "Next": 8802,
      "pending": 8803,
      "cinema": 8804,
      "Okay": 8805,
      "spam": 8806,
      "yak": 8807,
      "spoke": 8808,
      "Gover": 8809,
      "remin": 8810,
      "Pappu": 8811,
      "rite": 8812,
      "Gaye": 8813,
      "conver": 8814,
      "Yahan": 8815,
      "aadi": 8816,
      "kesi": 8817,
      "Google": 8818,
      "Seri": 8819,
      "tips": 8820,
      "adver": 8821,
      "🧿🧿": 8822,
      "bru": 8823,
      "civil": 8824,
      "Baba": 8825,
      "flirt": 8826,
      "toon": 8827,
      ".!": 8828,
      "Rahi": 8829,
      "hopefully": 8830,
      "SK": 8831,
      "recommend": 8832,
      "bhaijaan": 8833,
      "owner": 8834,
      "jaag": 8835,
      "khaye": 8836,
      "anxi": 8837,
      "darling": 8838,
      "zaleel": 8839,
      "mirror": 8840,
      "teaching": 8841,
      "Devo": 8842,
      "sand": 8843,
      "writer": 8844,
      "PC": 8845,
      "plane": 8846,
      "mplo": 8847,
      "mahadev": 8848,
      "ack": 8849,
      "😂😂😂😂😂😂😂😂": 8850,
      "mates": 8851,
      "jaayegi": 8852,
      "jaat": 8853,
      "ento": 8854,
      "physics": 8855,
      "kharch": 8856,
      "dill": 8857,
      "cricketer": 8858,
      "graphy": 8859,
      "itv": 8860,
      "khoob": 8861,
      "inspiration": 8862,
      "Thoda": 8863,
      "immediately": 8864,
      "posting": 8865,
      "tement": 8866,
      "chalana": 8867,
      "environ": 8868,
      "brilli": 8869,
      "utne": 8870,
      "dege": 8871,
      "Apa": 8872,
      "atest": 8873,
      "jayda": 8874,
      "maxi": 8875,
      "teer": 8876,
      "Sri": 8877,
      "isis": 8878,
      "motivation": 8879,
      "fights": 8880,
      "jhuth": 8881,
      "Btw": 8882,
      "bew": 8883,
      "soos": 8884,
      "Behen": 8885,
      "bloody": 8886,
      "drink": 8887,
      "restri": 8888,
      "macha": 8889,
      "Congratulations": 8890,
      "lala": 8891,
      "speaker": 8892,
      "nikalte": 8893,
      "priya": 8894,
      "lagwa": 8895,
      "idiots": 8896,
      "sheet": 8897,
      "😬😬": 8898,
      "mahila": 8899,
      "clips": 8900,
      "👎👎": 8901,
      "hogyi": 8902,
      "chang": 8903,
      "damage": 8904,
      "liy": 8905,
      "Show": 8906,
      "mohsin": 8907,
      "aankhon": 8908,
      "mota": 8909,
      "Stop": 8910,
      "intelligent": 8911,
      "forced": 8912,
      "awards": 8913,
      "itivity": 8914,
      "laf": 8915,
      "hypocrite": 8916,
      "Hmm": 8917,
      "jaenge": 8918,
      "terrorism": 8919,
      "sachin": 8920,
      "lamba": 8921,
      "supply": 8922,
      "spreading": 8923,
      "😘😘😘😘": 8924,
      "ial": 8925,
      "snow": 8926,
      "ideology": 8927,
      "dangerous": 8928,
      "aster": 8929,
      "apun": 8930,
      "confident": 8931,
      "phirse": 8932,
      "dem": 8933,
      "theatre": 8934,
      "tumare": 8935,
      "balls": 8936,
      "Mal": 8937,
      "STOP": 8938,
      "muft": 8939,
      "Election": 8940,
      "Bhaiya": 8941,
      "makeup": 8942,
      "💥💥": 8943,
      "masoom": 8944,
      "veg": 8945,
      "amar": 8946,
      "Jin": 8947,
      "keeping": 8948,
      "neigh": 8949,
      "agaya": 8950,
      "aagya": 8951,
      "consu": 8952,
      "wouldn": 8953,
      "electri": 8954,
      "kavi": 8955,
      "wag": 8956,
      "patakhe": 8957,
      "mindset": 8958,
      "batate": 8959,
      "dna": 8960,
      "afgan": 8961,
      "sochne": 8962,
      "ril": 8963,
      "Kare": 8964,
      "🔥🔥🔥🔥": 8965,
      "pana": 8966,
      "followed": 8967,
      "surprised": 8968,
      "aler": 8969,
      "nger": 8970,
      "waalo": 8971,
      "strict": 8972,
      "gentle": 8973,
      "4c": 8974,
      "Jal": 8975,
      "spider": 8976,
      "smil": 8977,
      "barra": 8978,
      "12th": 8979,
      "250": 8980,
      "Bangladesh": 8981,
      "Spe": 8982,
      "galiya": 8983,
      "expen": 8984,
      "gor": 8985,
      "jood": 8986,
      "kashmiri": 8987,
      "SR": 8988,
      "sunke": 8989,
      "bheed": 8990,
      "khaane": 8991,
      "saa": 8992,
      "losing": 8993,
      "Bola": 8994,
      "1c": 8995,
      "sahara": 8996,
      "Thats": 8997,
      "London": 8998,
      "tc": 8999,
      "btaye": 9000,
      "types": 9001,
      "barish": 9002,
      "liberal": 9003,
      "jalan": 9004,
      "chest": 9005,
      "iden": 9006,
      "medicine": 9007,
      "sensible": 9008,
      "ators": 9009,
      "iner": 9010,
      "samajhte": 9011,
      "62": 9012,
      "PTI": 9013,
      "indeed": 9014,
      "heer": 9015,
      "genuinely": 9016,
      "screenshot": 9017,
      "buddhi": 9018,
      "ldki": 9019,
      "sabha": 9020,
      "pahunch": 9021,
      "trig": 9022,
      "paate": 9023,
      "exposed": 9024,
      "huh": 9025,
      "chicken": 9026,
      "zal": 9027,
      "rahiye": 9028,
      "taree": 9029,
      "victory": 9030,
      "aid": 9031,
      "frustration": 9032,
      "teach": 9033,
      "600": 9034,
      "putting": 9035,
      "maarne": 9036,
      "ushal": 9037,
      "error": 9038,
      "saans": 9039,
      "toler": 9040,
      "deliver": 9041,
      "pped": 9042,
      "tober": 9043,
      "6c": 9044,
      "2023": 9045,
      "Afri": 9046,
      "marr": 9047,
      "precious": 9048,
      "Duni": 9049,
      "safety": 9050,
      "holding": 9051,
      "munh": 9052,
      "desper": 9053,
      "uring": 9054,
      "divya": 9055,
      "Actually": 9056,
      "vad": 9057,
      "inflation": 9058,
      "maaro": 9059,
      "pah": 9060,
      "Uska": 9061,
      "bachche": 9062,
      "function": 9063,
      "dede": 9064,
      "Men": 9065,
      "feli": 9066,
      "rahey": 9067,
      "movement": 9068,
      "karay": 9069,
      "theory": 9070,
      "haz": 9071,
      "guna": 9072,
      "shre": 9073,
      "plate": 9074,
      "goals": 9075,
      "lux": 9076,
      "hassan": 9077,
      "💐💐": 9078,
      "introdu": 9079,
      "guj": 9080,
      "opinions": 9081,
      "apologi": 9082,
      "chalegi": 9083,
      "Video": 9084,
      "priyanka": 9085,
      "tukde": 9086,
      "WITH": 9087,
      "chhoti": 9088,
      "gup": 9089,
      "glti": 9090,
      "61": 9091,
      "nain": 9092,
      "kisse": 9093,
      "besharam": 9094,
      "pil": 9095,
      "backup": 9096,
      "economic": 9097,
      "pdega": 9098,
      "padhta": 9099,
      "srf": 9100,
      "hesh": 9101,
      "batata": 9102,
      "ciple": 9103,
      "shall": 9104,
      "mumkin": 9105,
      "deny": 9106,
      "Teju": 9107,
      "schedule": 9108,
      "sight": 9109,
      "fty": 9110,
      "hearing": 9111,
      "retain": 9112,
      "yari": 9113,
      "manshi": 9114,
      "nur": 9115,
      "farah": 9116,
      "updates": 9117,
      "santa": 9118,
      "shown": 9119,
      "sunn": 9120,
      "thappad": 9121,
      "consis": 9122,
      "craft": 9123,
      "bought": 9124,
      "muskil": 9125,
      "corner": 9126,
      "sonu": 9127,
      "ilities": 9128,
      "apple": 9129,
      "streaming": 9130,
      "dadi": 9131,
      "WO": 9132,
      "betha": 9133,
      "cias": 9134,
      "gency": 9135,
      "NT": 9136,
      "usually": 9137,
      "grace": 9138,
      "uthaya": 9139,
      "smiling": 9140,
      "huva": 9141,
      "Joh": 9142,
      "ared": 9143,
      "plays": 9144,
      "progress": 9145,
      "Air": 9146,
      "often": 9147,
      "quir": 9148,
      "Fake": 9149,
      "jinki": 9150,
      "😍😍😍": 9151,
      "angre": 9152,
      "saving": 9153,
      "kahna": 9154,
      "terms": 9155,
      "pahele": 9156,
      "lil": 9157,
      "vibe": 9158,
      "dhakka": 9159,
      "Karna": 9160,
      "ques": 9161,
      "bataiye": 9162,
      "nyay": 9163,
      "khuch": 9164,
      "gues": 9165,
      "Jee": 9166,
      "develo": 9167,
      "aada": 9168,
      "coo": 9169,
      "mala": 9170,
      "replied": 9171,
      "sugar": 9172,
      "distance": 9173,
      "infe": 9174,
      "Kumar": 9175,
      "broke": 9176,
      "rojgar": 9177,
      "milkar": 9178,
      "wrote": 9179,
      "modern": 9180,
      "chutti": 9181,
      "etna": 9182,
      "vidha": 9183,
      "upcoming": 9184,
      "bhaii": 9185,
      "closed": 9186,
      "deen": 9187,
      "gia": 9188,
      "khub": 9189,
      "jayege": 9190,
      "kachra": 9191,
      "kartay": 9192,
      "zindgi": 9193,
      "kripa": 9194,
      "Nai": 9195,
      "muze": 9196,
      "TU": 9197,
      "highlight": 9198,
      "Where": 9199,
      "sensitive": 9200,
      "qualify": 9201,
      "lucknow": 9202,
      "mony": 9203,
      "iii": 9204,
      "higher": 9205,
      "raf": 9206,
      "karwaya": 9207,
      "kasi": 9208,
      "jawaab": 9209,
      "jeevan": 9210,
      "banayi": 9211,
      "chay": 9212,
      "civili": 9213,
      "South": 9214,
      "chun": 9215,
      "Dus": 9216,
      "arab": 9217,
      "dale": 9218,
      "ushi": 9219,
      "finance": 9220,
      "commission": 9221,
      "shouldn": 9222,
      "Inter": 9223,
      "winds": 9224,
      "From": 9225,
      "shukriya": 9226,
      "achievement": 9227,
      "pup": 9228,
      "aib": 9229,
      "banai": 9230,
      "production": 9231,
      "tood": 9232,
      "khadi": 9233,
      "CON": 9234,
      "achy": 9235,
      "Didi": 9236,
      "manna": 9237,
      "Aapke": 9238,
      "fais": 9239,
      "cities": 9240,
      "Will": 9241,
      "zid": 9242,
      "calcul": 9243,
      "racy": 9244,
      "nie": 9245,
      "Follow": 9246,
      "pac": 9247,
      "christian": 9248,
      "agreed": 9249,
      "QUE": 9250,
      "Party": 9251,
      "®®®®®®": 9252,
      "Whats": 9253,
      "slowly": 9254,
      "eating": 9255,
      "officers": 9256,
      "kol": 9257,
      "built": 9258,
      "shock": 9259,
      "ankh": 9260,
      "meray": 9261,
      "tees": 9262,
      "payi": 9263,
      "kapil": 9264,
      "named": 9265,
      "120": 9266,
      "CA": 9267,
      "estab": 9268,
      "Sunday": 9269,
      "jna": 9270,
      "Year": 9271,
      "chlo": 9272,
      "LIKE": 9273,
      "floor": 9274,
      "Inde": 9275,
      "Take": 9276,
      "bekaar": 9277,
      "Dev": 9278,
      "Rep": 9279,
      "funding": 9280,
      "Far": 9281,
      "tane": 9282,
      "ama": 9283,
      "Sharma": 9284,
      "mall": 9285,
      "scar": 9286,
      "bardasht": 9287,
      "sas": 9288,
      "shaheen": 9289,
      "infra": 9290,
      "meanwhile": 9291,
      "revol": 9292,
      "highly": 9293,
      "overs": 9294,
      "received": 9295,
      "Sahib": 9296,
      "insaniyat": 9297,
      "bhas": 9298,
      "blockbuster": 9299,
      "Baaki": 9300,
      "ullu": 9301,
      "VIEW": 9302,
      ";)": 9303,
      "sik": 9304,
      "chlta": 9305,
      "Rs": 9306,
      "eb": 9307,
      "hire": 9308,
      "81": 9309,
      "destroy": 9310,
      "phat": 9311,
      "ffici": 9312,
      "crowd": 9313,
      "keeps": 9314,
      "gem": 9315,
      "2013": 9316,
      "wall": 9317,
      "annoying": 9318,
      "guts": 9319,
      "jimme": 9320,
      "Kuchh": 9321,
      "jite": 9322,
      "advertise": 9323,
      "bicha": 9324,
      "Ary": 9325,
      "rend": 9326,
      "chaat": 9327,
      "iconic": 9328,
      "Fa": 9329,
      "nalli": 9330,
      "sacha": 9331,
      "samman": 9332,
      "sem": 9333,
      "stroke": 9334,
      "Live": 9335,
      "belie": 9336,
      "bhula": 9337,
      "timeline": 9338,
      "scholar": 9339,
      "format": 9340,
      "quar": 9341,
      "itation": 9342,
      "achieved": 9343,
      "mod": 9344,
      "chose": 9345,
      "leaving": 9346,
      "jump": 9347,
      "Cri": 9348,
      "render": 9349,
      "jii": 9350,
      "gair": 9351,
      "sleeping": 9352,
      "rice": 9353,
      "University": 9354,
      "openly": 9355,
      "nani": 9356,
      "spoi": 9357,
      "rao": 9358,
      "critici": 9359,
      "MERE": 9360,
      "fashi": 9361,
      "lgte": 9362,
      "bottle": 9363,
      "sei": 9364,
      "batayega": 9365,
      "samjhte": 9366,
      "aim": 9367,
      "algo": 9368,
      "Kahi": 9369,
      "associ": 9370,
      "Solar": 9371,
      "asha": 9372,
      "67": 9373,
      "understood": 9374,
      "hence": 9375,
      "finals": 9376,
      "naagin": 9377,
      "hono": 9378,
      "avg": 9379,
      "complex": 9380,
      "Was": 9381,
      "Army": 9382,
      "aly": 9383,
      "Inka": 9384,
      "prakash": 9385,
      "64": 9386,
      "unlike": 9387,
      "alot": 9388,
      "radio": 9389,
      "comeback": 9390,
      "selfie": 9391,
      "sanatan": 9392,
      "attempt": 9393,
      "jealousy": 9394,
      "💖💖": 9395,
      "😋😋": 9396,
      "added": 9397,
      "Pura": 9398,
      "lun": 9399,
      "armaan": 9400,
      "fursat": 9401,
      "becoming": 9402,
      "Apko": 9403,
      "Bach": 9404,
      "piya": 9405,
      "badiya": 9406,
      "uh": 9407,
      "Hoga": 9408,
      "thre": 9409,
      "peaceful": 9410,
      "kamya": 9411,
      "tarika": 9412,
      "💪💪": 9413,
      "Car": 9414,
      "jaroorat": 9415,
      "blow": 9416,
      "theres": 9417,
      "Pls": 9418,
      "Her": 9419,
      "resign": 9420,
      "Australia": 9421,
      "krunga": 9422,
      "hoye": 9423,
      "whose": 9424,
      "👏🏻": 9425,
      "pyara": 9426,
      "rizwan": 9427,
      "atha": 9428,
      "RR": 9429,
      "thar": 9430,
      "variant": 9431,
      "unme": 9432,
      "King": 9433,
      "rahti": 9434,
      "jaungi": 9435,
      "somewhere": 9436,
      "chata": 9437,
      "padte": 9438,
      "wane": 9439,
      "Fan": 9440,
      "HU": 9441,
      "najar": 9442,
      "tears": 9443,
      "ssor": 9444,
      "becoz": 9445,
      "Kan": 9446,
      "bk": 9447,
      "bato": 9448,
      "jihad": 9449,
      "khyal": 9450,
      "jaegi": 9451,
      "riya": 9452,
      "hhh": 9453,
      "rahein": 9454,
      "chapter": 9455,
      "Chota": 9456,
      "dara": 9457,
      "nuksan": 9458,
      "mujy": 9459,
      "isters": 9460,
      "ksi": 9461,
      "fatt": 9462,
      "safai": 9463,
      "Miss": 9464,
      "guard": 9465,
      "masala": 9466,
      "satya": 9467,
      "panga": 9468,
      "hogai": 9469,
      "khamo": 9470,
      "fau": 9471,
      "afford": 9472,
      "DP": 9473,
      "mao": 9474,
      "Pta": 9475,
      "eo": 9476,
      "surely": 9477,
      "spirit": 9478,
      "Jaan": 9479,
      "...!!": 9480,
      "worried": 9481,
      "shamil": 9482,
      "mics": 9483,
      "💀💀": 9484,
      "buying": 9485,
      "audio": 9486,
      "sacrifice": 9487,
      "products": 9488,
      "manz": 9489,
      "palat": 9490,
      "hadur": 9491,
      "fek": 9492,
      "saved": 9493,
      "advan": 9494,
      "filled": 9495,
      "cow": 9496,
      "nikalta": 9497,
      "pradhan": 9498,
      "megastar": 9499,
      "motiv": 9500,
      "Afghanistan": 9501,
      "operation": 9502,
      "interaction": 9503,
      "hojayega": 9504,
      "karana": 9505,
      "khati": 9506,
      "AI": 9507,
      "kabse": 9508,
      "inju": 9509,
      "faire": 9510,
      "khandan": 9511,
      "kim": 9512,
      "affe": 9513,
      "😁😁😁": 9514,
      "ghusa": 9515,
      "deja": 9516,
      "dii": 9517,
      "autom": 9518,
      "offe": 9519,
      "pis": 9520,
      "Katrina": 9521,
      "poet": 9522,
      "instig": 9523,
      "mohan": 9524,
      "kursi": 9525,
      "rip": 9526,
      "💜💜": 9527,
      "daala": 9528,
      "leye": 9529,
      "tte": 9530,
      "Shyam": 9531,
      "hau": 9532,
      "reporter": 9533,
      "gane": 9534,
      "saudi": 9535,
      "rota": 9536,
      "Kitne": 9537,
      "chhor": 9538,
      "Corona": 9539,
      "apno": 9540,
      "blessings": 9541,
      "memory": 9542,
      "geo": 9543,
      "Bjp": 9544,
      "jack": 9545,
      "KUCH": 9546,
      "meer": 9547,
      "..??": 9548,
      "Scho": 9549,
      "mien": 9550,
      "milni": 9551,
      "atory": 9552,
      "bhasha": 9553,
      "BT": 9554,
      "casm": 9555,
      "haas": 9556,
      "Gir": 9557,
      "celebrating": 9558,
      "argue": 9559,
      "rajneeti": 9560,
      "inches": 9561,
      "stable": 9562,
      "becomes": 9563,
      "kart": 9564,
      "sequence": 9565,
      "fly": 9566,
      "😂😂😂😂😂😂": 9567,
      "rum": 9568,
      "Seriously": 9569,
      "ceo": 9570,
      "neither": 9571,
      "password": 9572,
      "compu": 9573,
      "hoto": 9574,
      "chant": 9575,
      "beroz": 9576,
      "ladte": 9577,
      "England": 9578,
      "jasmin": 9579,
      "gud": 9580,
      "gence": 9581,
      "properly": 9582,
      "HAHAHAHA": 9583,
      "disturb": 9584,
      "Thi": 9585,
      "jaun": 9586,
      "tells": 9587,
      "Sus": 9588,
      "aaraha": 9589,
      "infact": 9590,
      "excitement": 9591,
      "pag": 9592,
      "chaha": 9593,
      "hahah": 9594,
      "mutual": 9595,
      "positivity": 9596,
      "delay": 9597,
      "sever": 9598,
      "banwa": 9599,
      "granth": 9600,
      "ride": 9601,
      "subscribe": 9602,
      "kout": 9603,
      "padhi": 9604,
      "attain": 9605,
      "saalon": 9606,
      "rae": 9607,
      "olympics": 9608,
      "sada": 9609,
      "yya": 9610,
      "guarantee": 9611,
      "thha": 9612,
      "inhi": 9613,
      "enjoying": 9614,
      "Paisa": 9615,
      "Sak": 9616,
      "Isme": 9617,
      "rapist": 9618,
      "gajab": 9619,
      "brilliant": 9620,
      "Iske": 9621,
      "dhara": 9622,
      "glass": 9623,
      "mgr": 9624,
      "hori": 9625,
      "bheje": 9626,
      "seconds": 9627,
      "thes": 9628,
      "sabar": 9629,
      "advantage": 9630,
      "cancer": 9631,
      "hag": 9632,
      "solid": 9633,
      "milk": 9634,
      "Rajiv": 9635,
      "returns": 9636,
      "joker": 9637,
      "3000": 9638,
      "Sin": 9639,
      "Sabse": 9640,
      "tool": 9641,
      "gande": 9642,
      "ekdam": 9643,
      "large": 9644,
      "kage": 9645,
      "sessive": 9646,
      "qeen": 9647,
      "filter": 9648,
      "feet": 9649,
      "held": 9650,
      "Test": 9651,
      "ita": 9652,
      "uti": 9653,
      "hers": 9654,
      "handles": 9655,
      "shab": 9656,
      "shipping": 9657,
      "skill": 9658,
      "doodh": 9659,
      "bigad": 9660,
      "notes": 9661,
      "theyre": 9662,
      "quran": 9663,
      "cbse": 9664,
      "mob": 9665,
      "nda": 9666,
      "derabad": 9667,
      "twist": 9668,
      "finished": 9669,
      "gical": 9670,
      "pg": 9671,
      "5th": 9672,
      "august": 9673,
      "bacchi": 9674,
      "moka": 9675,
      "bachon": 9676,
      "debut": 9677,
      "gotta": 9678,
      "sentence": 9679,
      "retirement": 9680,
      "jabardasti": 9681,
      "dekhni": 9682,
      "parts": 9683,
      "hotey": 9684,
      "honay": 9685,
      "Pol": 9686,
      "tarakhand": 9687,
      "banned": 9688,
      "maximum": 9689,
      "meed": 9690,
      "venue": 9691,
      "xx": 9692,
      "bhaiyo": 9693,
      "kitab": 9694,
      "decisions": 9695,
      "HANT": 9696,
      "kutto": 9697,
      "😉😉": 9698,
      "reha": 9699,
      "SM": 9700,
      "yay": 9701,
      "ines": 9702,
      "sme": 9703,
      "aajtak": 9704,
      "tabh": 9705,
      "wasnt": 9706,
      "krein": 9707,
      "00mm": 9708,
      "nikli": 9709,
      "garv": 9710,
      "FT": 9711,
      "farmer": 9712,
      "doc": 9713,
      "swag": 9714,
      "ml": 9715,
      "AD": 9716,
      "fru": 9717,
      "nas": 9718,
      "Akhi": 9719,
      "krde": 9720,
      "military": 9721,
      "plant": 9722,
      "teeno": 9723,
      "arrog": 9724,
      "tip": 9725,
      "hasan": 9726,
      "cheer": 9727,
      "helping": 9728,
      "pointment": 9729,
      "jhan": 9730,
      "sikhs": 9731,
      "speaks": 9732,
      "karwane": 9733,
      "2015": 9734,
      "patra": 9735,
      "aadhe": 9736,
      "events": 9737,
      "nap": 9738,
      "Media": 9739,
      "Really": 9740,
      "warm": 9741,
      "laming": 9742,
      "norm": 9743,
      "www": 9744,
      "jija": 9745,
      "reporting": 9746,
      "commer": 9747,
      "gm": 9748,
      "chhote": 9749,
      "showed": 9750,
      "ANG": 9751,
      "technical": 9752,
      "Kyuki": 9753,
      "animals": 9754,
      "seva": 9755,
      "dya": 9756,
      "humlog": 9757,
      "tests": 9758,
      "dukaan": 9759,
      "regarding": 9760,
      "ached": 9761,
      "VIEWERS": 9762,
      "lawyer": 9763,
      "Christi": 9764,
      "settle": 9765,
      "direction": 9766,
      "beginning": 9767,
      "hamein": 9768,
      "pyare": 9769,
      "Phone": 9770,
      "bhoo": 9771,
      "tasks": 9772,
      "legit": 9773,
      "prate": 9774,
      "hd": 9775,
      "lagu": 9776,
      "hony": 9777,
      "sanskr": 9778,
      "cise": 9779,
      "subh": 9780,
      "pull": 9781,
      "nia": 9782,
      "everybody": 9783,
      "altu": 9784,
      "embarra": 9785,
      "install": 9786,
      "anger": 9787,
      "saboot": 9788,
      "rested": 9789,
      "aaega": 9790,
      "desig": 9791,
      "frame": 9792,
      "shared": 9793,
      "clai": 9794,
      "padhte": 9795,
      "thek": 9796,
      "bnane": 9797,
      "Still": 9798,
      "gulam": 9799,
      "pyaari": 9800,
      "survive": 9801,
      "khula": 9802,
      "jacket": 9803,
      "tume": 9804,
      "stuck": 9805,
      "panic": 9806,
      "tended": 9807,
      "sanskar": 9808,
      "passed": 9809,
      "puncture": 9810,
      "insaaf": 9811,
      "alu": 9812,
      "pareshani": 9813,
      "GUR": 9814,
      "THIS": 9815,
      "dhokha": 9816,
      "pocket": 9817,
      "bullshit": 9818,
      "guly": 9819,
      "fellow": 9820,
      "chamcha": 9821,
      "violent": 9822,
      "haste": 9823,
      "68": 9824,
      "urge": 9825,
      "krle": 9826,
      "nanga": 9827,
      "nari": 9828,
      "uries": 9829,
      "cara": 9830,
      "zulm": 9831,
      "conversion": 9832,
      "ladna": 9833,
      "sending": 9834,
      "temples": 9835,
      "majboor": 9836,
      "Kejriwal": 9837,
      "hinduism": 9838,
      "LAH": 9839,
      "decent": 9840,
      "T20": 9841,
      "copter": 9842,
      "Shan": 9843,
      "creative": 9844,
      "namas": 9845,
      "greatest": 9846,
      "Pas": 9847,
      "Sidhar": 9848,
      "TUM": 9849,
      "dip": 9850,
      "karoon": 9851,
      "sya": 9852,
      "excellent": 9853,
      "namak": 9854,
      "alam": 9855,
      "extremely": 9856,
      "Vote": 9857,
      "Bengal": 9858,
      "anxiety": 9859,
      "sear": 9860,
      "dikhne": 9861,
      "helped": 9862,
      "pregn": 9863,
      "unemplo": 9864,
      "poke": 9865,
      "TT": 9866,
      "Kahan": 9867,
      "Puri": 9868,
      "map": 9869,
      "STAR": 9870,
      "NIS": 9871,
      "rot": 9872,
      "nand": 9873,
      "fashion": 9874,
      "suffering": 9875,
      "saya": 9876,
      "dub": 9877,
      "kand": 9878,
      "huwe": 9879,
      "conspi": 9880,
      "journalism": 9881,
      "shakti": 9882,
      "Mandir": 9883,
      "afganistan": 9884,
      "portraying": 9885,
      "dharti": 9886,
      "tures": 9887,
      "independence": 9888,
      "liking": 9889,
      "prepar": 9890,
      "activity": 9891,
      "rael": 9892,
      "kerne": 9893,
      "nikale": 9894,
      "mf": 9895,
      "refer": 9896,
      "murkh": 9897,
      "prior": 9898,
      "Keep": 9899,
      "merit": 9900,
      "statements": 9901,
      "oner": 9902,
      "sochti": 9903,
      "tah": 9904,
      "lecting": 9905,
      "saka": 9906,
      "Government": 9907,
      "JI": 9908,
      "gadbad": 9909,
      "aadhi": 9910,
      "Lau": 9911,
      "tait": 9912,
      "sote": 9913,
      "blm": 9914,
      "chuna": 9915,
      "pov": 9916,
      "rush": 9917,
      "vicky": 9918,
      "tez": 9919,
      "phones": 9920,
      "shocked": 9921,
      "dhe": 9922,
      "extend": 9923,
      "electricity": 9924,
      "dikhayi": 9925,
      "mira": 9926,
      "todne": 9927,
      "Karachi": 9928,
      "fish": 9929,
      "ES": 9930,
      "lungi": 9931,
      "resta": 9932,
      "karwana": 9933,
      "saturday": 9934,
      "bhikhari": 9935,
[...]
